{
  "version": "1.0",
  "truncation": null,
  "padding": null,
  "added_tokens": [
    {
      "id": 200000,
      "content": "]!p~[",
      "single_word": false,
      "lstrip": false,
      "rstrip": false,
      "normalized": false,
      "special": true
    },
    {
      "id": 200001,
      "content": "<fim_prefix>",
      "single_word": false,
      "lstrip": false,
      "rstrip": false,
      "normalized": false,
      "special": true
    },
    {
      "id": 200002,
      "content": "<fim_middle>",
      "single_word": false,
      "lstrip": false,
      "rstrip": false,
      "normalized": false,
      "special": true
    },
    {
      "id": 200003,
      "content": "<fim_suffix>",
      "single_word": false,
      "lstrip": false,
      "rstrip": false,
      "normalized": false,
      "special": true
    },
    {
      "id": 200004,
      "content": "<fim_pad>",
      "single_word": false,
      "lstrip": false,
      "rstrip": false,
      "normalized": false,
      "special": true
    },
    {
      "id": 200005,
      "content": "<reponame>",
      "single_word": false,
      "lstrip": false,
      "rstrip": false,
      "normalized": false,
      "special": true
    },
    {
      "id": 200006,
      "content": "<filename>",
      "single_word": false,
      "lstrip": false,
      "rstrip": false,
      "normalized": false,
      "special": true
    },
    {
      "id": 200007,
      "content": "<gh_stars>",
      "single_word": false,
      "lstrip": false,
      "rstrip": false,
      "normalized": false,
      "special": true
    },
    {
      "id": 200008,
      "content": "<issue_start>",
      "single_word": false,
      "lstrip": false,
      "rstrip": false,
      "normalized": false,
      "special": true
    },
    {
      "id": 200009,
      "content": "<issue_comment>",
      "single_word": false,
      "lstrip": false,
      "rstrip": false,
      "normalized": false,
      "special": true
    },
    {
      "id": 200010,
      "content": "<issue_closed>",
      "single_word": false,
      "lstrip": false,
      "rstrip": false,
      "normalized": false,
      "special": true
    },
    {
      "id": 200011,
      "content": "<jupyter_start>",
      "single_word": false,
      "lstrip": false,
      "rstrip": false,
      "normalized": false,
      "special": true
    },
    {
      "id": 200012,
      "content": "<jupyter_text>",
      "single_word": false,
      "lstrip": false,
      "rstrip": false,
      "normalized": false,
      "special": true
    },
    {
      "id": 200013,
      "content": "<jupyter_code>",
      "single_word": false,
      "lstrip": false,
      "rstrip": false,
      "normalized": false,
      "special": true
    },
    {
      "id": 200014,
      "content": "<jupyter_output>",
      "single_word": false,
      "lstrip": false,
      "rstrip": false,
      "normalized": false,
      "special": true
    },
    {
      "id": 200015,
      "content": "<empty_output>",
      "single_word": false,
      "lstrip": false,
      "rstrip": false,
      "normalized": false,
      "special": true
    },
    {
      "id": 200016,
      "content": "<commit_before>",
      "single_word": false,
      "lstrip": false,
      "rstrip": false,
      "normalized": false,
      "special": true
    },
    {
      "id": 200017,
      "content": "<commit_msg>",
      "single_word": false,
      "lstrip": false,
      "rstrip": false,
      "normalized": false,
      "special": true
    },
    {
      "id": 200018,
      "content": "<commit_after>",
      "single_word": false,
      "lstrip": false,
      "rstrip": false,
      "normalized": false,
      "special": true
    },
    {
      "id": 200019,
      "content": "]~b]",
      "single_word": false,
      "lstrip": false,
      "rstrip": false,
      "normalized": false,
      "special": true
    },
    {
      "id": 200020,
      "content": "[e~[",
      "single_word": false,
      "lstrip": false,
      "rstrip": false,
      "normalized": false,
      "special": true
    },
    {
      "id": 200021,
      "content": "]!d~[",
      "single_word": false,
      "lstrip": false,
      "rstrip": false,
      "normalized": false,
      "special": true
    },
    {
      "id": 200022,
      "content": "<function_call>",
      "single_word": false,
      "lstrip": false,
      "rstrip": false,
      "normalized": false,
      "special": true
    },
    {
      "id": 200023,
      "content": "<code_interpreter>",
      "single_word": false,
      "lstrip": false,
      "rstrip": false,
      "normalized": false,
      "special": true
    },
    {
      "id": 200024,
      "content": "]<]speech[>[",
      "single_word": false,
      "lstrip": false,
      "rstrip": false,
      "normalized": false,
      "special": true
    },
    {
      "id": 200025,
      "content": "]<]image[>[",
      "single_word": false,
      "lstrip": false,
      "rstrip": false,
      "normalized": false,
      "special": true
    },
    {
      "id": 200026,
      "content": "]<]video[>[",
      "single_word": false,
      "lstrip": false,
      "rstrip": false,
      "normalized": false,
      "special": true
    },
    {
      "id": 200027,
      "content": "]<]start of speech[>[",
      "single_word": false,
      "lstrip": false,
      "rstrip": false,
      "normalized": false,
      "special": true
    },
    {
      "id": 200028,
      "content": "]<]end of speech[>[",
      "single_word": false,
      "lstrip": false,
      "rstrip": false,
      "normalized": false,
      "special": true
    },
    {
      "id": 200029,
      "content": "]<]start of image[>[",
      "single_word": false,
      "lstrip": false,
      "rstrip": false,
      "normalized": false,
      "special": true
    },
    {
      "id": 200030,
      "content": "]<]end of image[>[",
      "single_word": false,
      "lstrip": false,
      "rstrip": false,
      "normalized": false,
      "special": true
    },
    {
      "id": 200031,
      "content": "]<]start of video[>[",
      "single_word": false,
      "lstrip": false,
      "rstrip": false,
      "normalized": false,
      "special": true
    },
    {
      "id": 200032,
      "content": "]<]end of video[>[",
      "single_word": false,
      "lstrip": false,
      "rstrip": false,
      "normalized": false,
      "special": true
    },
    {
      "id": 200033,
      "content": "]<]vision pad[>[",
      "single_word": false,
      "lstrip": false,
      "rstrip": false,
      "normalized": false,
      "special": true
    },
    {
      "id": 200034,
      "content": "]~!b[",
      "single_word": false,
      "lstrip": false,
      "rstrip": false,
      "normalized": false,
      "special": true
    },
    {
      "id": 200035,
      "content": "<jupyter_error>",
      "single_word": false,
      "lstrip": false,
      "rstrip": false,
      "normalized": false,
      "special": true
    },
    {
      "id": 200036,
      "content": "<add_file>",
      "single_word": false,
      "lstrip": false,
      "rstrip": false,
      "normalized": false,
      "special": true
    },
    {
      "id": 200037,
      "content": "<delete_file>",
      "single_word": false,
      "lstrip": false,
      "rstrip": false,
      "normalized": false,
      "special": true
    },
    {
      "id": 200038,
      "content": "<rename_file>",
      "single_word": false,
      "lstrip": false,
      "rstrip": false,
      "normalized": false,
      "special": true
    },
    {
      "id": 200039,
      "content": "<edit_file>",
      "single_word": false,
      "lstrip": false,
      "rstrip": false,
      "normalized": false,
      "special": true
    },
    {
      "id": 200040,
      "content": "<commit_message>",
      "single_word": false,
      "lstrip": false,
      "rstrip": false,
      "normalized": false,
      "special": true
    },
    {
      "id": 200041,
      "content": "<empty_source_file>",
      "single_word": false,
      "lstrip": false,
      "rstrip": false,
      "normalized": false,
      "special": true
    },
    {
      "id": 200042,
      "content": "<repo_struct>",
      "single_word": false,
      "lstrip": false,
      "rstrip": false,
      "normalized": false,
      "special": true
    },
    {
      "id": 200043,
      "content": "<code_context>",
      "single_word": false,
      "lstrip": false,
      "rstrip": false,
      "normalized": false,
      "special": true
    },
    {
      "id": 200044,
      "content": "<file_content>",
      "single_word": false,
      "lstrip": false,
      "rstrip": false,
      "normalized": false,
      "special": true
    },
    {
      "id": 200045,
      "content": "<source_files>",
      "single_word": false,
      "lstrip": false,
      "rstrip": false,
      "normalized": false,
      "special": true
    },
    {
      "id": 200046,
      "content": "<pr_start>",
      "single_word": false,
      "lstrip": false,
      "rstrip": false,
      "normalized": false,
      "special": true
    },
    {
      "id": 200047,
      "content": "<review_comment>",
      "single_word": false,
      "lstrip": false,
      "rstrip": false,
      "normalized": false,
      "special": true
    },
    {
      "id": 200048,
      "content": "<filepath>",
      "single_word": false,
      "lstrip": false,
      "rstrip": false,
      "normalized": false,
      "special": true
    },
    {
      "id": 200049,
      "content": "<file_sep>",
      "single_word": false,
      "lstrip": false,
      "rstrip": false,
      "normalized": false,
      "special": true
    },
    {
      "id": 200050,
      "content": "<think>",
      "single_word": false,
      "lstrip": false,
      "rstrip": false,
      "normalized": false,
      "special": false
    },
    {
      "id": 200051,
      "content": "</think>",
      "single_word": false,
      "lstrip": false,
      "rstrip": false,
      "normalized": false,
      "special": false
    },
    {
      "id": 200052,
      "content": "<tool_call>",
      "single_word": false,
      "lstrip": false,
      "rstrip": false,
      "normalized": false,
      "special": false
    },
    {
      "id": 200053,
      "content": "</tool_call>",
      "single_word": false,
      "lstrip": false,
      "rstrip": false,
      "normalized": false,
      "special": false
    },
    {
      "id": 200054,
      "content": "]<]frame[>[",
      "single_word": false,
      "lstrip": false,
      "rstrip": false,
      "normalized": false,
      "special": true
    },
    {
      "id": 200055,
      "content": "]<]start of frame[>[",
      "single_word": false,
      "lstrip": false,
      "rstrip": false,
      "normalized": false,
      "special": true
    },
    {
      "id": 200056,
      "content": "]<]end of frame[>[",
      "single_word": false,
      "lstrip": false,
      "rstrip": false,
      "normalized": false,
      "special": true
    },
    {
      "id": 200057,
      "content": "<|content_altered_placeholder|>",
      "single_word": false,
      "lstrip": false,
      "rstrip": false,
      "normalized": false,
      "special": true
    },
    {
      "id": 200058,
      "content": "]<]minimax[>[",
      "single_word": false,
      "lstrip": false,
      "rstrip": false,
      "normalized": false,
      "special": false
    },
    {
      "id": 200059,
      "content": "<mm:think>",
      "single_word": false,
      "lstrip": false,
      "rstrip": false,
      "normalized": false,
      "special": false
    },
    {
      "id": 200060,
      "content": "</mm:think>",
      "single_word": false,
      "lstrip": false,
      "rstrip": false,
      "normalized": false,
      "special": false
    }
  ],
  "normalizer": {
    "type": "NFC"
  },
  "pre_tokenizer": {
    "type": "Sequence",
    "pretokenizers": [
      {
        "type": "Split",
        "pattern": {
          "Regex": "[^\\r\\n\\p{L}\\p{N}]?[\\p{Lu}\\p{Lt}\\p{Lm}\\p{Lo}\\p{M}]*[\\p{Ll}\\p{Lm}\\p{Lo}\\p{M}]+(?i:'s|'t|'re|'ve|'m|'ll|'d)?|[^\\r\\n\\p{L}\\p{N}]?[\\p{Lu}\\p{Lt}\\p{Lm}\\p{Lo}\\p{M}]+[\\p{Ll}\\p{Lm}\\p{Lo}\\p{M}]*(?i:'s|'t|'re|'ve|'m|'ll|'d)?|\\p{N}{1,3}| ?[^\\s\\p{L}\\p{N}]+[\\r\\n/]*|\\s*[\\r\\n]+|\\s+(?!\\S)|\\s+"
        },
        "behavior": "Removed",
        "invert": true
      },
      {
        "type": "ByteLevel",
        "add_prefix_space": false,
        "trim_offsets": true,
        "use_regex": false
      }
    ]
  },
  "post_processor": null,
  "decoder": {
    "type": "ByteLevel",
    "add_prefix_space": true,
    "trim_offsets": true,
    "use_regex": true
  },
  "model": {
    "type": "BPE",
    "dropout": null,
    "unk_token": null,
    "continuing_subword_prefix": "",
    "end_of_word_suffix": "",
    "fuse_unk": false,
    "byte_fallback": false,
    "vocab": {
      "Ā": 0,
      "ā": 1,
      "Ă": 2,
      "ă": 3,
      "Ą": 4,
      "ą": 5,
      "Ć": 6,
      "ć": 7,
      "Ĉ": 8,
      "ĉ": 9,
      "Ċ": 10,
      "ċ": 11,
      "Č": 12,
      "č": 13,
      "Ď": 14,
      "ď": 15,
      "Đ": 16,
      "đ": 17,
      "Ē": 18,
      "ē": 19,
      "Ĕ": 20,
      "ĕ": 21,
      "Ė": 22,
      "ė": 23,
      "Ę": 24,
      "ę": 25,
      "Ě": 26,
      "ě": 27,
      "Ĝ": 28,
      "ĝ": 29,
      "Ğ": 30,
      "ğ": 31,
      "Ġ": 32,
      "!": 33,
      "\"": 34,
      "#": 35,
      "$": 36,
      "%": 37,
      "&": 38,
      "'": 39,
      "(": 40,
      ")": 41,
      "*": 42,
      "+": 43,
      ",": 44,
      "-": 45,
      ".": 46,
      "/": 47,
      "0": 48,
      "1": 49,
      "2": 50,
      "3": 51,
      "4": 52,
      "5": 53,
      "6": 54,
      "7": 55,
      "8": 56,
      "9": 57,
      ":": 58,
      ";": 59,
      "<": 60,
      "=": 61,
      ">": 62,
      "?": 63,
      "@": 64,
      "A": 65,
      "B": 66,
      "C": 67,
      "D": 68,
      "E": 69,
      "F": 70,
      "G": 71,
      "H": 72,
      "I": 73,
      "J": 74,
      "K": 75,
      "L": 76,
      "M": 77,
      "N": 78,
      "O": 79,
      "P": 80,
      "Q": 81,
      "R": 82,
      "S": 83,
      "T": 84,
      "U": 85,
      "V": 86,
      "W": 87,
      "X": 88,
      "Y": 89,
      "Z": 90,
      "[": 91,
      "\\": 92,
      "]": 93,
      "^": 94,
      "_": 95,
      "`": 96,
      "a": 97,
      "b": 98,
      "c": 99,
      "d": 100,
      "e": 101,
      "f": 102,
      "g": 103,
      "h": 104,
      "i": 105,
      "j": 106,
      "k": 107,
      "l": 108,
      "m": 109,
      "n": 110,
      "o": 111,
      "p": 112,
      "q": 113,
      "r": 114,
      "s": 115,
      "t": 116,
      "u": 117,
      "v": 118,
      "w": 119,
      "x": 120,
      "y": 121,
      "z": 122,
      "{": 123,
      "|": 124,
      "}": 125,
      "~": 126,
      "ġ": 127,
      "Ģ": 128,
      "ģ": 129,
      "Ĥ": 130,
      "ĥ": 131,
      "Ħ": 132,
      "ħ": 133,
      "Ĩ": 134,
      "ĩ": 135,
      "Ī": 136,
      "ī": 137,
      "Ĭ": 138,
      "ĭ": 139,
      "Į": 140,
      "į": 141,
      "İ": 142,
      "ı": 143,
      "Ĳ": 144,
      "ĳ": 145,
      "Ĵ": 146,
      "ĵ": 147,
      "Ķ": 148,
      "ķ": 149,
      "ĸ": 150,
      "Ĺ": 151,
      "ĺ": 152,
      "Ļ": 153,
      "ļ": 154,
      "Ľ": 155,
      "ľ": 156,
      "Ŀ": 157,
      "ŀ": 158,
      "Ł": 159,
      "ł": 160,
      "¡": 161,
      "¢": 162,
      "£": 163,
      "¤": 164,
      "¥": 165,
      "¦": 166,
      "§": 167,
      "¨": 168,
      "©": 169,
      "ª": 170,
      "«": 171,
      "¬": 172,
      "Ń": 173,
      "®": 174,
      "¯": 175,
      "°": 176,
      "±": 177,
      "²": 178,
      "³": 179,
      "´": 180,
      "µ": 181,
      "¶": 182,
      "·": 183,
      "¸": 184,
      "¹": 185,
      "º": 186,
      "»": 187,
      "¼": 188,
      "½": 189,
      "¾": 190,
      "¿": 191,
      "À": 192,
      "Á": 193,
      "Â": 194,
      "Ã": 195,
      "Ä": 196,
      "Å": 197,
      "Æ": 198,
      "Ç": 199,
      "È": 200,
      "É": 201,
      "Ê": 202,
      "Ë": 203,
      "Ì": 204,
      "Í": 205,
      "Î": 206,
      "Ï": 207,
      "Ð": 208,
      "Ñ": 209,
      "Ò": 210,
      "Ó": 211,
      "Ô": 212,
      "Õ": 213,
      "Ö": 214,
      "×": 215,
      "Ø": 216,
      "Ù": 217,
      "Ú": 218,
      "Û": 219,
      "Ü": 220,
      "Ý": 221,
      "Þ": 222,
      "ß": 223,
      "à": 224,
      "á": 225,
      "â": 226,
      "ã": 227,
      "ä": 228,
      "å": 229,
      "æ": 230,
      "ç": 231,
      "è": 232,
      "é": 233,
      "ê": 234,
      "ë": 235,
      "ì": 236,
      "í": 237,
      "î": 238,
      "ï": 239,
      "ð": 240,
      "ñ": 241,
      "ò": 242,
      "ó": 243,
      "ô": 244,
      "õ": 245,
      "ö": 246,
      "÷": 247,
      "ø": 248,
      "ù": 249,
      "ú": 250,
      "û": 251,
      "ü": 252,
      "ý": 253,
      "þ": 254,
      "ÿ": 255,
      "ĠĠ": 256,
      "Ġt": 257,
      "Ġa": 258,
      "in": 259,
      "er": 260,
      "on": 261,
      "en": 262,
      "es": 263,
      "ãģ": 264,
      "Ġth": 265,
      "Ġs": 266,
      "Ġd": 267,
      "or": 268,
      "at": 269,
      "Ġc": 270,
      "an": 271,
      "ĠĠĠĠ": 272,
      "Ġp": 273,
      "re": 274,
      "Ġthe": 275,
      "is": 276,
      "it": 277,
      "ar": 278,
      "al": 279,
      "Ġo": 280,
      "Ġm": 281,
      "Ġw": 282,
      "Ġl": 283,
      "Ġf": 284,
      "ou": 285,
      "ed": 286,
      "Ġb": 287,
      "as": 288,
      "ing": 289,
      "ic": 290,
      "ion": 291,
      "Ġan": 292,
      "ãĤ": 293,
      "ent": 294,
      "el": 295,
      "Ġin": 296,
      "Ġh": 297,
      "ro": 298,
      "ï¼": 299,
      "Ġof": 300,
      "Ġto": 301,
      "ä¸": 302,
      "et": 303,
      "ãĢ": 304,
      "Ġde": 305,
      "Ġand": 306,
      "il": 307,
      "ãĥ": 308,
      "os": 309,
      "âĢ": 310,
      "Ġn": 311,
      "om": 312,
      "ct": 313,
      "le": 314,
      "ad": 315,
      "Ġe": 316,
      "us": 317,
      "id": 318,
      "un": 319,
      ".Ċ": 320,
      "ï¼Į": 321,
      "am": 322,
      "ur": 323,
      "im": 324,
      "qu": 325,
      "ĠĠĠ": 326,
      "Ġre": 327,
      "ut": 328,
      "ĠĠĠĠĠĠĠĠ": 329,
      "Ġy": 330,
      "ol": 331,
      "ac": 332,
      "Ġg": 333,
      "çļ": 334,
      "em": 335,
      "çļĦ": 336,
      "Ã©": 337,
      "ĠS": 338,
      "ot": 339,
      "ig": 340,
      "äº": 341,
      "ve": 342,
      "ĠI": 343,
      "ĠT": 344,
      "ĠA": 345,
      "ation": 346,
      "ĠC": 347,
      "est": 348,
      "Ø§": 349,
      "ãĢĤ": 350,
      "ch": 351,
      "Ġv": 352,
      "ul": 353,
      "Ġr": 354,
      "Ġis": 355,
      "Ġcon": 356,
      "ir": 357,
      "st": 358,
      "Ġ(": 359,
      "Ġfor": 360,
      "he": 361,
      "ow": 362,
      "ay": 363,
      "Ġbe": 364,
      "ers": 365,
      "ce": 366,
      "ĊĊ": 367,
      "ly": 368,
      "if": 369,
      "ab": 370,
      "ĠP": 371,
      "ag": 372,
      "ĠM": 373,
      "æľ": 374,
      "Ġon": 375,
      "ä»": 376,
      "ÙĦ": 377,
      "Ġst": 378,
      "od": 379,
      "åı": 380,
      "Ġpro": 381,
      "um": 382,
      "ess": 383,
      "Ġqu": 384,
      "Ġen": 385,
      "iv": 386,
      "ãĢģ": 387,
      "ter": 388,
      "Ġthat": 389,
      "Ġyou": 390,
      "Ġun": 391,
      "Ġcom": 392,
      "ith": 393,
      "âĢĻ": 394,
      "Ġwh": 395,
      "th": 396,
      "Ġal": 397,
      "ect": 398,
      "Ġla": 399,
      "å¤": 400,
      "Ġas": 401,
      "ant": 402,
      "ist": 403,
      "åħ": 404,
      "ap": 405,
      "ate": 406,
      "ĠB": 407,
      "Ġse": 408,
      "Ġ=": 409,
      "ãģ®": 410,
      "and": 411,
      "Ġit": 412,
      "ri": 413,
      "å®": 414,
      "ver": 415,
      "ĠD": 416,
      "ci": 417,
      "Ġwith": 418,
      "åĪ": 419,
      "--": 420,
      "ä½": 421,
      "è¿": 422,
      ";Ċ": 423,
      "ĠĠĠĠĠĠĠ": 424,
      "ĠE": 425,
      "ak": 426,
      "20": 427,
      "æĺ": 428,
      "ort": 429,
      "ra": 430,
      "Ġex": 431,
      "åĲ": 432,
      "ĠR": 433,
      "Ġsu": 434,
      "ĠL": 435,
      "Ġor": 436,
      "op": 437,
      "pl": 438,
      "end": 439,
      "ill": 440,
      "ere": 441,
      "ÙĬ": 442,
      "ĠF": 443,
      "çĶ": 444,
      "Ġpar": 445,
      "åľ": 446,
      "ĠH": 447,
      "Ġk": 448,
      "ĠØ": 449,
      "Ã³": 450,
      "Ġque": 451,
      "ht": 452,
      "Ġel": 453,
      "oc": 454,
      "Ø§ÙĦ": 455,
      "our": 456,
      "Ġare": 457,
      "ĠÐ": 458,
      "Ġle": 459,
      "Ùħ": 460,
      "ud": 461,
      "ang": 462,
      "se": 463,
      "æĪ": 464,
      "ä¸Ģ": 465,
      "ment": 466,
      "ain": 467,
      "ãģĦ": 468,
      "ĠN": 469,
      "Ġne": 470,
      "ĠG": 471,
      "Ġat": 472,
      "ity": 473,
      "ä¹": 474,
      "âĢĿ": 475,
      "ĠW": 476,
      "âĢľ": 477,
      "te": 478,
      "pe": 479,
      "oun": 480,
      "Ġj": 481,
      "ie": 482,
      "å°": 483,
      "rom": 484,
      "æĺ¯": 485,
      "Ġ\\": 486,
      "ãĢĤĊ": 487,
      "ld": 488,
      "æĸ": 489,
      "Ġ$": 490,
      "iz": 491,
      "ãģ«": 492,
      "åĬ": 493,
      "Ġ\"": 494,
      "ore": 495,
      "og": 496,
      "ãģ§": 497,
      "Ġch": 498,
      "Ġpr": 499,
      "Ã¡": 500,
      "Ġha": 501,
      "æĹ": 502,
      "ue": 503,
      "ÙĪ": 504,
      "Ð¾": 505,
      "Ġì": 506,
      "up": 507,
      "Ġ{": 508,
      "Ġtr": 509,
      "ãģĹ": 510,
      "Ġus": 511,
      "00": 512,
      "ĠØ§ÙĦ": 513,
      "åĽ": 514,
      "ive": 515,
      "Ġnot": 516,
      "ĠThe": 517,
      "ia": 518,
      "port": 519,
      "pt": 520,
      "ure": 521,
      "Ġwas": 522,
      "è¯": 523,
      "ç»": 524,
      "ine": 525,
      "ÙĨ": 526,
      "åŃ": 527,
      ")Ċ": 528,
      "per": 529,
      "ust": 530,
      "Ġby": 531,
      "ies": 532,
      "ãģĻ": 533,
      "ight": 534,
      "ĠO": 535,
      "ä¸į": 536,
      "all": 537,
      "Ð°": 538,
      "ä¼": 539,
      "ans": 540,
      "ub": 541,
      "ãģ¦": 542,
      "ÃŃ": 543,
      "Ġhe": 544,
      "ãģ¨": 545,
      "Ġthis": 546,
      "æĿ": 547,
      "ãĤĭ": 548,
      "age": 549,
      "Ø§Ø": 550,
      "äºĨ": 551,
      "ãĤĴ": 552,
      "Ġsh": 553,
      "å¹": 554,
      "Ġfrom": 555,
      "ath": 556,
      "Ġdes": 557,
      "ire": 558,
      "ell": 559,
      "Ġdo": 560,
      "Ġpl": 561,
      "ame": 562,
      "Ġwe": 563,
      "orm": 564,
      "æī": 565,
      "Ġcan": 566,
      "ult": 567,
      "äºº": 568,
      "out": 569,
      "Ðµ": 570,
      "ib": 571,
      "ĠJ": 572,
      "ard": 573,
      "ik": 574,
      "ãĥ¼": 575,
      "pr": 576,
      "ãģª": 577,
      "Ġres": 578,
      "åį": 579,
      "ction": 580,
      "Ġhave": 581,
      "ĠIn": 582,
      "ff": 583,
      "ip": 584,
      "cl": 585,
      "ost": 586,
      "Ġim": 587,
      "æľī": 588,
      "ãģĮ": 589,
      "ãģ¾": 590,
      "ĠĠĠĠĠĠĠĠĠĠĠ": 591,
      "}Ċ": 592,
      "Ġest": 593,
      "åľ¨": 594,
      "ass": 595,
      "ãģŁ": 596,
      "Ġad": 597,
      "å¾": 598,
      "Ġab": 599,
      "art": 600,
      "ãģ¯": 601,
      "Ð¸": 602,
      "ould": 603,
      "ĠU": 604,
      "ous": 605,
      "è®": 606,
      ",Ċ": 607,
      "Ġcont": 608,
      "ok": 609,
      "able": 610,
      "éĩ": 611,
      "Ġso": 612,
      "ind": 613,
      "ack": 614,
      "19": 615,
      "Ø±": 616,
      "ast": 617,
      ");Ċ": 618,
      "ich": 619,
      "å·": 620,
      "èĢ": 621,
      "åĩ": 622,
      "å¼": 623,
      "con": 624,
      "Ġcl": 625,
      "åĨ": 626,
      "ally": 627,
      "Ġper": 628,
      "Ã³n": 629,
      "//": 630,
      "å¸": 631,
      "der": 632,
      "è¡": 633,
      ".ĊĊ": 634,
      "ĠÃ": 635,
      "åº": 636,
      "ome": 637,
      "Ġ&": 638,
      "ide": 639,
      "Ġme": 640,
      "Ġyour": 641,
      "are": 642,
      "ice": 643,
      "----": 644,
      "..": 645,
      "Ġ{Ċ": 646,
      "cc": 647,
      "éĢ": 648,
      "Ġar": 649,
      "Ġet": 650,
      "Ġap": 651,
      "to": 652,
      "Ġ*": 653,
      "act": 654,
      "du": 655,
      "ens": 656,
      "ign": 657,
      "Ð½": 658,
      "ions": 659,
      "Ġwor": 660,
      "Ġ-": 661,
      "ĠTh": 662,
      "å¥": 663,
      "av": 664,
      "gr": 665,
      "de": 666,
      "âĢĻs": 667,
      "ĥ½": 668,
      "ated": 669,
      "ÑĤ": 670,
      "int": 671,
      "æĢ": 672,
      "ement": 673,
      "å¯": 674,
      "ence": 675,
      "ĉĉ": 676,
      "Ø©": 677,
      "çĽ": 678,
      "Ġall": 679,
      "so": 680,
      "ach": 681,
      "ial": 682,
      "Ġcomp": 683,
      "æķ": 684,
      "ient": 685,
      "form": 686,
      "Ġno": 687,
      "ase": 688,
      "ĠK": 689,
      "å¤§": 690,
      "è¦": 691,
      "'s": 692,
      "==": 693,
      "ime": 694,
      "tr": 695,
      "ìĿ": 696,
      "201": 697,
      "ance": 698,
      "Ġdis": 699,
      "ä¸Ń": 700,
      "ĠV": 701,
      "ear": 702,
      "one": 703,
      "ãĥ³": 704,
      "**": 705,
      "ÑĢ": 706,
      "io": 707,
      "ĠĠĠĠĠĠĠĠĠĠĠĠĠĠĠĠ": 708,
      "Ġem": 709,
      "Øª": 710,
      "ite": 711,
      "Ġë": 712,
      "ations": 713,
      "ge": 714,
      "Ġwill": 715,
      "ber": 716,
      "ace": 717,
      "fer": 718,
      "å¿": 719,
      "Ñģ": 720,
      "xt": 721,
      "Ġ'": 722,
      "ound": 723,
      "ah": 724,
      "ep": 725,
      "10": 726,
      "åĮ": 727,
      "ong": 728,
      "ne": 729,
      "Ġif": 730,
      "æł": 731,
      "oug": 732,
      "æĪĳ": 733,
      "ile": 734,
      "urn": 735,
      "Ġes": 736,
      "æĬ": 737,
      "è§": 738,
      "ical": 739,
      "Ġgr": 740,
      "Ġgo": 741,
      "ĠâĢľ": 742,
      "ä¸Ĭ": 743,
      "Ġpre": 744,
      "Ġbut": 745,
      "Ġser": 746,
      "ata": 747,
      "Ġdel": 748,
      "Ġlos": 749,
      "ary": 750,
      "Ð¾Ð": 751,
      "ord": 752,
      "Ġout": 753,
      "è¿Ļ": 754,
      "æŃ": 755,
      "ont": 756,
      "ado": 757,
      "The": 758,
      "ail": 759,
      "Ġhas": 760,
      "èĩ": 761,
      "Ġman": 762,
      "ä¸ª": 763,
      "Ġpart": 764,
      "èµ": 765,
      "ob": 766,
      "ru": 767,
      "ert": 768,
      "ãĤĬ": 769,
      "ec": 770,
      "lic": 771,
      "ĠØ§ÙĦØ": 772,
      "çľ": 773,
      "ther": 774,
      "æ°": 775,
      "Ġlo": 776,
      "ition": 777,
      "Ùģ": 778,
      "ĠâĢ": 779,
      "In": 780,
      "ç§": 781,
      "åĴ": 782,
      "vel": 783,
      "Ġthey": 784,
      "),": 785,
      "å½": 786,
      "her": 787,
      "iÃ³n": 788,
      "ĠÃł": 789,
      "Ã£": 790,
      "Ġ[": 791,
      "å±": 792,
      "ãģĭ": 793,
      "ä¸º": 794,
      "çİ": 795,
      "com": 796,
      "Ġwhich": 797,
      ":Ċ": 798,
      "çī": 799,
      "Ã§": 800,
      "ãĤĤ": 801,
      "åİ": 802,
      "eng": 803,
      "ake": 804,
      "Ġtheir": 805,
      "Ã£o": 806,
      "pro": 807,
      "eg": 808,
      "éģ": 809,
      "è¦ģ": 810,
      "Ġup": 811,
      "Ġmore": 812,
      "æ³": 813,
      ").": 814,
      "ä¼ļ": 815,
      "Ġinter": 816,
      "Ġpara": 817,
      "ä»¥": 818,
      "æĶ": 819,
      "Ø¯": 820,
      "å¹´": 821,
      "}ĊĊ": 822,
      "Ġ|": 823,
      "Ġsa": 824,
      "çĶŁ": 825,
      "ll": 826,
      "Ġte": 827,
      "ual": 828,
      "çĶ¨": 829,
      "ces": 830,
      "Ùĩ": 831,
      "ari": 832,
      "ãĤĮ": 833,
      "éĿ": 834,
      "åĴĮ": 835,
      "Ġhis": 836,
      "æĥ": 837,
      "ose": 838,
      "éĹ": 839,
      "åĳ": 840,
      "Ġone": 841,
      "éĻ": 842,
      "æĿ¥": 843,
      "ov": 844,
      "ory": 845,
      "ks": 846,
      "ough": 847,
      "get": 848,
      "que": 849,
      "è´": 850,
      "æ²": 851,
      "ors": 852,
      "ä¿": 853,
      "ple": 854,
      "ject": 855,
      "Ġev": 856,
      "åĩº": 857,
      "res": 858,
      "ier": 859,
      "ft": 860,
      "ï¼ļ": 861,
      "ÙĤ": 862,
      "ents": 863,
      "ĠY": 864,
      "Ġpe": 865,
      "200": 866,
      "ĠAn": 867,
      "ãģ£": 868,
      "ific": 869,
      "èĥ½": 870,
      "æİ": 871,
      "ãģĵ": 872,
      "ely": 873,
      "æĦ": 874,
      "ãĤ¹": 875,
      "Ġles": 876,
      "Ġ<": 877,
      "ĠĠĠĠĠ": 878,
      "æŀ": 879,
      "åŃ¦": 880,
      "pon": 881,
      "Ġag": 882,
      "ish": 883,
      "math": 884,
      "elf": 885,
      "ĠÃ©": 886,
      "ãģĨ": 887,
      "Ùĥ": 888,
      "åĵ": 889,
      "ãĤī": 890,
      "åĪ°": 891,
      "ä»ĸ": 892,
      "æĹ¶": 893,
      "Ġabout": 894,
      "_{": 895,
      "ode": 896,
      "ĠCh": 897,
      "ãģ¾ãģĻ": 898,
      "Ġpor": 899,
      "ug": 900,
      "turn": 901,
      "Ġnew": 902,
      "åĽ½": 903,
      "ry": 904,
      "íķ": 905,
      "Ã¨": 906,
      "Ġcomm": 907,
      "Ġfe": 908,
      "ãĥ¼ãĥ": 909,
      "cre": 910,
      "()": 911,
      "Ġam": 912,
      "Ġent": 913,
      "ada": 914,
      "åı¯": 915,
      "use": 916,
      "åī": 917,
      "è¡Į": 918,
      "Ġdi": 919,
      "ike": 920,
      "erm": 921,
      "ese": 922,
      ";ĊĊ": 923,
      "å°±": 924,
      "Ġ:": 925,
      "own": 926,
      "èĩª": 927,
      "ĠSt": 928,
      "row": 929,
      "Ġmy": 930,
      "ater": 931,
      "ĠÙħ": 932,
      "æµ": 933,
      "lo": 934,
      "Ġsp": 935,
      "Ġcons": 936,
      "çĲ": 937,
      "ade": 938,
      "Ġob": 939,
      "ount": 940,
      "Ġget": 941,
      "iss": 942,
      "Ġcol": 943,
      "æ¯": 944,
      "æĸ¹": 945,
      "Ø¹": 946,
      "Ġacc": 947,
      "ien": 948,
      "Ġany": 949,
      "Ø¨": 950,
      "ype": 951,
      "ays": 952,
      "Ġwere": 953,
      "ener": 954,
      "ublic": 955,
      "cial": 956,
      "ãģı": 957,
      "ä½ľ": 958,
      "Ð»": 959,
      "rit": 960,
      "ings": 961,
      "ild": 962,
      "ps": 963,
      "Ġalso": 964,
      "Ġother": 965,
      "ian": 966,
      "Ġtime": 967,
      "åĪĨ": 968,
      "æĮ": 969,
      "ular": 970,
      "Ġwho": 971,
      "åľ°": 972,
      "ä¸ĭ": 973,
      "çŃ": 974,
      "12": 975,
      "ree": 976,
      "è¾": 977,
      "ric": 978,
      "çº": 979,
      "ais": 980,
      "ark": 981,
      "rib": 982,
      "rm": 983,
      "Ġher": 984,
      "cess": 985,
      "Ġthere": 986,
      "aciÃ³n": 987,
      "Ġro": 988,
      "uc": 989,
      "Ã©s": 990,
      "ãĤ¤": 991,
      "Ġmay": 992,
      "Ġsur": 993,
      "Ġwhen": 994,
      "les": 995,
      "Ġê": 996,
      "Ġact": 997,
      "ĠIt": 998,
      "oy": 999,
      "å¯¹": 1000,
      "Ġsome": 1001,
      "Ġwork": 1002,
      "Ġthem": 1003,
      "æĹ¥": 1004,
      "æĭ": 1005,
      "Ġpos": 1006,
      "ĠĠĠĠĠĠĠĠĠĠĠĠĠĠĠ": 1007,
      "Ġlas": 1008,
      "ink": 1009,
      "Ġhad": 1010,
      "ros": 1011,
      "ĠÙĪ": 1012,
      "Ġco": 1013,
      "Ġfun": 1014,
      "Ġdif": 1015,
      "æĪĲ": 1016,
      "pos": 1017,
      "we": 1018,
      "Ġval": 1019,
      "eth": 1020,
      "å¤ļ": 1021,
      "par": 1022,
      "reat": 1023,
      "Ġrec": 1024,
      "pect": 1025,
      "yst": 1026,
      "low": 1027,
      "åŃĲ": 1028,
      "--------": 1029,
      "ef": 1030,
      "Ġwould": 1031,
      "ä¹Ł": 1032,
      "ph": 1033,
      "å¦": 1034,
      "æľ¬": 1035,
      "clud": 1036,
      "ize": 1037,
      "ãģį": 1038,
      "ex": 1039,
      "Ġbeen": 1040,
      "ä¾": 1041,
      "ãģĹãģ¦": 1042,
      "ock": 1043,
      "Ġour": 1044,
      "Ġform": 1045,
      "é¢": 1046,
      "au": 1047,
      "erv": 1048,
      "Ġover": 1049,
      "ates": 1050,
      "ection": 1051,
      "åıĳ": 1052,
      "ãĥĪ": 1053,
      "Ġac": 1054,
      "Th": 1055,
      "ĠĊ": 1056,
      "Ġmod": 1057,
      "ç«": 1058,
      "ï¼ī": 1059,
      "olog": 1060,
      "ä»¬": 1061,
      "è½": 1062,
      "Ġrel": 1063,
      "aj": 1064,
      "Ø³": 1065,
      "erson": 1066,
      "Ġthan": 1067,
      "ï¼Ī": 1068,
      "ãģķ": 1069,
      "ĠUn": 1070,
      "}$": 1071,
      "Ġits": 1072,
      "Ġkn": 1073,
      "å®¶": 1074,
      "15": 1075,
      "à¤": 1076,
      "ery": 1077,
      "Ġint": 1078,
      "Ġlike": 1079,
      "ise": 1080,
      "18": 1081,
      "Ġind": 1082,
      "ca": 1083,
      "ey": 1084,
      "ä½ł": 1085,
      "ëĭ": 1086,
      "ente": 1087,
      "Ġinv": 1088,
      "çĲĨ": 1089,
      "emb": 1090,
      "Ġprodu": 1091,
      "irst": 1092,
      "Ã±": 1093,
      "Ġwhat": 1094,
      "Ġmu": 1095,
      "çĿ": 1096,
      "Ġinto": 1097,
      "Ġdu": 1098,
      "Ġreg": 1099,
      ">Ċ": 1100,
      "åŁ": 1101,
      "æĻ": 1102,
      "Ðº": 1103,
      "Ġprov": 1104,
      "iew": 1105,
      "äºĭ": 1106,
      "èĤ": 1107,
      "çĤ": 1108,
      "ull": 1109,
      "Ġass": 1110,
      "ĠÂ": 1111,
      "Ġdef": 1112,
      "Ñĥ": 1113,
      "Ġyear": 1114,
      "ax": 1115,
      "æ´": 1116,
      "åĲİ": 1117,
      "arg": 1118,
      "æ¬": 1119,
      "ional": 1120,
      "mathrm": 1121,
      "Ġstr": 1122,
      "é«": 1123,
      "Ġhow": 1124,
      "::": 1125,
      "Ġreturn": 1126,
      "Ġjust": 1127,
      "Ġuna": 1128,
      "Ġpres": 1129,
      "Ġspe": 1130,
      "inal": 1131,
      "Ġneed": 1132,
      "æ±": 1133,
      "å®ļ": 1134,
      "ä¸ļ": 1135,
      "ons": 1136,
      "ople": 1137,
      "__": 1138,
      "=\"": 1139,
      "Ġ.": 1140,
      "'t": 1141,
      "éĽ": 1142,
      "Ġsub": 1143,
      "ãģĤ": 1144,
      "é¡": 1145,
      "ick": 1146,
      "ystem": 1147,
      "11": 1148,
      "éĺ": 1149,
      "ãĥĥ": 1150,
      "Ġtrans": 1151,
      "åĲĪ": 1152,
      "igh": 1153,
      "idad": 1154,
      "eb": 1155,
      "æ¸": 1156,
      "Ġset": 1157,
      "uk": 1158,
      "put": 1159,
      "Ġbet": 1160,
      "è¿ĩ": 1161,
      "Ġaut": 1162,
      "åĢ": 1163,
      "\",": 1164,
      "æĽ": 1165,
      "oint": 1166,
      "iel": 1167,
      "çŁ": 1168,
      "é«ĺ": 1169,
      "ç®": 1170,
      "plic": 1171,
      "az": 1172,
      "cept": 1173,
      "Ġ}": 1174,
      "çĦ": 1175,
      "å¥½": 1176,
      "ç¤": 1177,
      "Ġbo": 1178,
      "\\Ċ": 1179,
      "Ġ/": 1180,
      "çĻ": 1181,
      "line": 1182,
      "ys": 1183,
      "æ³ķ": 1184,
      "å·¥": 1185,
      "old": 1186,
      "Ġadd": 1187,
      "30": 1188,
      "è¨": 1189,
      "è¯´": 1190,
      "ix": 1191,
      "wo": 1192,
      "Ġunder": 1193,
      "éĥ": 1194,
      "ern": 1195,
      "ible": 1196,
      "å¾Ĺ": 1197,
      "ç½": 1198,
      "Ġinst": 1199,
      "red": 1200,
      "Ġop": 1201,
      "^{": 1202,
      "äºİ": 1203,
      "ĠThis": 1204,
      "ĠâĢĵ": 1205,
      "éĥ½": 1206,
      "##": 1207,
      "''": 1208,
      "ç¨": 1209,
      "ĠEn": 1210,
      "ç´": 1211,
      "co": 1212,
      "Ġpol": 1213,
      "Ġaf": 1214,
      "ÃŃa": 1215,
      "Ġ$\\": 1216,
      "åĬĽ": 1217,
      "éĿ¢": 1218,
      "ï¼Ł": 1219,
      "Ġmen": 1220,
      "Ġtra": 1221,
      "ange": 1222,
      "Ġuse": 1223,
      "åģ": 1224,
      "Ġpeople": 1225,
      "å°ı": 1226,
      "Ġpublic": 1227,
      "any": 1228,
      "Ġhel": 1229,
      "Ġda": 1230,
      "ann": 1231,
      "Ġph": 1232,
      "ied": 1233,
      "ced": 1234,
      "amb": 1235,
      "Ġperson": 1236,
      "Ġstud": 1237,
      "ç¬": 1238,
      "ins": 1239,
      "Ġoff": 1240,
      "very": 1241,
      "Ġpour": 1242,
      "å¿ĥ": 1243,
      "âĢĻt": 1244,
      "Ġonly": 1245,
      "====": 1246,
      "Ð²": 1247,
      "ãĤĵ": 1248,
      "16": 1249,
      "app": 1250,
      "its": 1251,
      "Ġsup": 1252,
      "ĠCom": 1253,
      "æı": 1254,
      "åīį": 1255,
      "ãģ§ãģĻ": 1256,
      "ating": 1257,
      "me": 1258,
      "ä½ĵ": 1259,
      "Ġ}Ċ": 1260,
      "oth": 1261,
      "Ġinform": 1262,
      "Ã¡s": 1263,
      "Ġ//": 1264,
      "ãĥ«": 1265,
      "èĢħ": 1266,
      "Ġau": 1267,
      "éķ": 1268,
      "ility": 1269,
      "err": 1270,
      "Ġav": 1271,
      "ĠHe": 1272,
      "ãģĹãģŁ": 1273,
      "çĿĢ": 1274,
      "ï¼ģ": 1275,
      "ĠPro": 1276,
      "mer": 1277,
      "Ġdon": 1278,
      "ĠWh": 1279,
      "Ġconst": 1280,
      "éĤ": 1281,
      "æĢ§": 1282,
      "çİ°": 1283,
      "ãĤ¯": 1284,
      "ities": 1285,
      "æĸ°": 1286,
      "Ã§Ã£o": 1287,
      "ident": 1288,
      "Ġsc": 1289,
      "ty": 1290,
      "(\"": 1291,
      "arn": 1292,
      "åħ¬": 1293,
      "Ġbl": 1294,
      "ãģĬ": 1295,
      "æīĢ": 1296,
      "tern": 1297,
      "ract": 1298,
      "ìĹ": 1299,
      "ãĥª": 1300,
      "gan": 1301,
      "urs": 1302,
      "text": 1303,
      "ics": 1304,
      "åħ¨": 1305,
      "Ġrequ": 1306,
      "Ġmed": 1307,
      "ble": 1308,
      "ica": 1309,
      "und": 1310,
      "Ġfirst": 1311,
      "Ġi": 1312,
      "rough": 1313,
      "ev": 1314,
      "Ġeff": 1315,
      "Ġshe": 1316,
      "Ġrem": 1317,
      "ä¹ĭ": 1318,
      "éģĵ": 1319,
      "ivers": 1320,
      "Ġcor": 1321,
      "Ġserv": 1322,
      "ork": 1323,
      "ative": 1324,
      "ew": 1325,
      "ĠAs": 1326,
      "ait": 1327,
      "amp": 1328,
      "Ġbu": 1329,
      "Âł": 1330,
      "åĲĮ": 1331,
      "è·": 1332,
      "ational": 1333,
      "ĠØ¨": 1334,
      "Ġmost": 1335,
      "Ġknow": 1336,
      "Ġatt": 1337,
      "ãĥ»": 1338,
      "Ġcar": 1339,
      "14": 1340,
      "ãĤĪ": 1341,
      "Ġdata": 1342,
      "Ġsol": 1343,
      "Ġthese": 1344,
      "Ãª": 1345,
      "ä¹Ī": 1346,
      "St": 1347,
      "Ġinclud": 1348,
      "Ġ+": 1349,
      "Ãº": 1350,
      "Ġmin": 1351,
      "Ġshould": 1352,
      "åĬ¨": 1353,
      "ç»ı": 1354,
      "cent": 1355,
      "æľĢ": 1356,
      "ER": 1357,
      "Ġdet": 1358,
      "ures": 1359,
      "ãĢĮ": 1360,
      "ai": 1361,
      "èĢĮ": 1362,
      "atch": 1363,
      "->": 1364,
      "ism": 1365,
      "éĸ": 1366,
      "Ġsaid": 1367,
      "éļ": 1368,
      "ãĢį": 1369,
      "å¸Ĥ": 1370,
      "50": 1371,
      "éĥ¨": 1372,
      "ues": 1373,
      "ØŃ": 1374,
      "Ġsuch": 1375,
      "ãģ£ãģ¦": 1376,
      "ãĥ©": 1377,
      "ten": 1378,
      "Ġbr": 1379,
      "ãģł": 1380,
      "æīĭ": 1381,
      "ĠdÃ©": 1382,
      "ict": 1383,
      "ased": 1384,
      "Ġyang": 1385,
      "å®ŀ": 1386,
      "fr": 1387,
      "è¿ĺ": 1388,
      "ãģĻãĤĭ": 1389,
      "Ġnum": 1390,
      "çľĭ": 1391,
      "Ñı": 1392,
      "ãĤ¢": 1393,
      "wn": 1394,
      "åħ¥": 1395,
      "çĤ¹": 1396,
      "cia": 1397,
      "åĮĸ": 1398,
      "Ġ@": 1399,
      "æľĪ": 1400,
      "ices": 1401,
      "ting": 1402,
      "Ġum": 1403,
      "å¼Ģ": 1404,
      "13": 1405,
      "ider": 1406,
      "ando": 1407,
      "import": 1408,
      "velop": 1409,
      "als": 1410,
      ".s": 1411,
      "å¦Ĥ": 1412,
      "é£": 1413,
      "åķ": 1414,
      "]Ċ": 1415,
      "ique": 1416,
      "Ġ\\\\Ċ": 1417,
      "Ġthrough": 1418,
      "å¤©": 1419,
      "Ġthen": 1420,
      "202": 1421,
      "ados": 1422,
      "ido": 1423,
      "Ġimport": 1424,
      "åĨħ": 1425,
      "ond": 1426,
      "}}": 1427,
      "çķ": 1428,
      "ores": 1429,
      "ood": 1430,
      "èī": 1431,
      "è¿Ľ": 1432,
      "En": 1433,
      "Ġsim": 1434,
      "Ð¼": 1435,
      "ä¸»": 1436,
      "ool": 1437,
      "ale": 1438,
      "ante": 1439,
      "ç¾": 1440,
      "è°": 1441,
      "Ġback": 1442,
      "Ġz": 1443,
      "Ġdiffer": 1444,
      "Ġclass": 1445,
      "ĠAl": 1446,
      "åº¦": 1447,
      "Ġcould": 1448,
      "æĥħ": 1449,
      "000": 1450,
      "Ġtwo": 1451,
      "çĦ¶": 1452,
      "åĵģ": 1453,
      "Ġmake": 1454,
      "Ġwhere": 1455,
      "Ġresult": 1456,
      "?Ċ": 1457,
      "gram": 1458,
      "ĠØ£": 1459,
      "air": 1460,
      "ãģĳ": 1461,
      "17": 1462,
      "Ġhim": 1463,
      "æ²¡": 1464,
      "ages": 1465,
      "å½ĵ": 1466,
      "å§": 1467,
      "Ġend": 1468,
      "urr": 1469,
      "``": 1470,
      "ung": 1471,
      "ution": 1472,
      "çŃī": 1473,
      "****": 1474,
      "ments": 1475,
      "Ġcre": 1476,
      "ank": 1477,
      "è¶": 1478,
      "Ġins": 1479,
      "pres": 1480,
      "ëĭ¤": 1481,
      "ãģĵãģ¨": 1482,
      "fore": 1483,
      "-s": 1484,
      "ãĤĦ": 1485,
      "yn": 1486,
      "ants": 1487,
      "Ġfr": 1488,
      "æķ°": 1489,
      "ina": 1490,
      "ĠÙģ": 1491,
      "ĠÙĦ": 1492,
      "ç©": 1493,
      "âĢĿĊ": 1494,
      "bo": 1495,
      "ield": 1496,
      "éĢļ": 1497,
      "Ġmon": 1498,
      "å£": 1499,
      "Ġtem": 1500,
      "Ġexper": 1501,
      "Ġsee": 1502,
      "Ð´": 1503,
      "ÙĬØ©": 1504,
      "èģ": 1505,
      "ator": 1506,
      "25": 1507,
      "åĬł": 1508,
      "cy": 1509,
      "aw": 1510,
      ".\"": 1511,
      "éĤ£": 1512,
      "æĸĩ": 1513,
      "erg": 1514,
      "åł": 1515,
      "ower": 1516,
      "Ġwell": 1517,
      "Ġused": 1518,
      "æĦı": 1519,
      "Ġcomo": 1520,
      "irect": 1521,
      "Ġune": 1522,
      "val": 1523,
      "100": 1524,
      "vent": 1525,
      "Ġgener": 1526,
      "Ġí": 1527,
      "Ġreal": 1528,
      "ful": 1529,
      "Ġdec": 1530,
      "Ùī": 1531,
      "Ġloc": 1532,
      "Ġsystem": 1533,
      "çĽ®": 1534,
      "ä¸İ": 1535,
      "Ġconf": 1536,
      "æ¥": 1537,
      "alth": 1538,
      "Ġext": 1539,
      "oup": 1540,
      "Ġsign": 1541,
      "ya": 1542,
      "åĭ": 1543,
      "}{": 1544,
      "ä¸Ģä¸ª": 1545,
      "æŁ": 1546,
      "Ġsm": 1547,
      "ĠAnd": 1548,
      "ãģĿ": 1549,
      "ìĿ´": 1550,
      "ON": 1551,
      "Ġmuch": 1552,
      "Ġ}ĊĊ": 1553,
      "Ø§Øª": 1554,
      "ets": 1555,
      "Wh": 1556,
      "å»": 1557,
      "ruct": 1558,
      "ĠWe": 1559,
      "els": 1560,
      "Ġfol": 1561,
      "ĠØ¹": 1562,
      "éĩį": 1563,
      "Ġed": 1564,
      "ife": 1565,
      "Ġlong": 1566,
      "str": 1567,
      "era": 1568,
      "ash": 1569,
      "Ġevery": 1570,
      "Ġdan": 1571,
      "kan": 1572,
      "Ġdist": 1573,
      "Ġart": 1574,
      "åħ¶": 1575,
      "Ġhelp": 1576,
      "ĠØ§ÙĦÙħ": 1577,
      "ê³": 1578,
      "</": 1579,
      "Ã©e": 1580,
      "right": 1581,
      "IN": 1582,
      "ars": 1583,
      "ute": 1584,
      "âĢ¦": 1585,
      "ØĮ": 1586,
      "ĠAr": 1587,
      "Ġcr": 1588,
      "ck": 1589,
      "Ġtod": 1590,
      "ãģ©": 1591,
      ".com": 1592,
      "ãĤģ": 1593,
      "cause": 1594,
      "Ġdur": 1595,
      "iones": 1596,
      "Ġbecause": 1597,
      "ĠRe": 1598,
      "ëĬ": 1599,
      "éĩĮ": 1600,
      "Ġhigh": 1601,
      "Ġpartic": 1602,
      "Ġlook": 1603,
      "åĿ": 1604,
      "Ġway": 1605,
      "ious": 1606,
      "åİ»": 1607,
      "ember": 1608,
      "aph": 1609,
      "ĠØª": 1610,
      "ä½¿": 1611,
      "âĢĶ": 1612,
      "Re": 1613,
      "amil": 1614,
      "chn": 1615,
      "ma": 1616,
      "ween": 1617,
      "Ġtest": 1618,
      "Ġafter": 1619,
      "Ġdans": 1620,
      "Ġ#": 1621,
      "Ġgu": 1622,
      "æį": 1623,
      "Ġdid": 1624,
      "ven": 1625,
      "Ø¬": 1626,
      "ove": 1627,
      "atic": 1628,
      "å¤ĸ": 1629,
      "read": 1630,
      "Con": 1631,
      "æľº": 1632,
      "Ġvari": 1633,
      "æĥ³": 1634,
      "',": 1635,
      "è¡¨": 1636,
      "Ġwant": 1637,
      "Ġfl": 1638,
      "uss": 1639,
      "Ġright": 1640,
      "ature": 1641,
      "Ġfin": 1642,
      "Ġmany": 1643,
      "ara": 1644,
      "äº§": 1645,
      "ward": 1646,
      "Ġeven": 1647,
      "min": 1648,
      "Ġprocess": 1649,
      "itt": 1650,
      "ĠCon": 1651,
      "ico": 1652,
      "æĺİ": 1653,
      "Ġbel": 1654,
      "Ġpas": 1655,
      "ument": 1656,
      "ãĤ¿": 1657,
      "èµ·": 1658,
      "Ġqui": 1659,
      "press": 1660,
      "Pro": 1661,
      "...": 1662,
      "æģ": 1663,
      "Ġve": 1664,
      "An": 1665,
      "Ġfil": 1666,
      "hip": 1667,
      "Ã©r": 1668,
      "Ġcap": 1669,
      "æŀľ": 1670,
      "çĽ¸": 1671,
      "ç³": 1672,
      "å¢": 1673,
      "èº": 1674,
      "ym": 1675,
      "aking": 1676,
      "ript": 1677,
      "ave": 1678,
      "åħ³": 1679,
      "éĹ´": 1680,
      "Ã©n": 1681,
      "ÑģÑĤ": 1682,
      "other": 1683,
      "ãģĪ": 1684,
      "iness": 1685,
      "ateg": 1686,
      "Ġter": 1687,
      "ever": 1688,
      "Ġvis": 1689,
      "å¾Ī": 1690,
      "ital": 1691,
      "éĩĳ": 1692,
      "Ġinf": 1693,
      "led": 1694,
      "Ġfunction": 1695,
      "ĠQ": 1696,
      "èĬ": 1697,
      "Ġbetween": 1698,
      "çŁ¥": 1699,
      "ëĬĶ": 1700,
      "Ġdoes": 1701,
      "ta": 1702,
      "ES": 1703,
      "oid": 1704,
      "_t": 1705,
      "_s": 1706,
      "Ġke": 1707,
      "Ġprof": 1708,
      "24": 1709,
      "ĠÐ¿": 1710,
      "self": 1711,
      "Ġself": 1712,
      "bre": 1713,
      "åĪ¶": 1714,
      "egin": 1715,
      ")ĊĊ": 1716,
      "èª": 1717,
      "åĽŀ": 1718,
      "Ġbus": 1719,
      "ample": 1720,
      "199": 1721,
      "AT": 1722,
      "ren": 1723,
      "çī©": 1724,
      "Ġcour": 1725,
      "çł": 1726,
      "æĦŁ": 1727,
      "Ġcall": 1728,
      "Ġread": 1729,
      "imes": 1730,
      "ç¥": 1731,
      "æľŁ": 1732,
      "Ġpat": 1733,
      "Ġcent": 1734,
      "Ġyears": 1735,
      "Ġeach": 1736,
      "éħ": 1737,
      "ux": 1738,
      "Ġdevelop": 1739,
      "Ġsch": 1740,
      "ited": 1741,
      "ãĤ·": 1742,
      "ines": 1743,
      "æ¶": 1744,
      "Ġstart": 1745,
      "ä¿Ŀ": 1746,
      "ts": 1747,
      "ÑĮ": 1748,
      "æ°´": 1749,
      "æıĲ": 1750,
      "Ñĭ": 1751,
      "ĠIf": 1752,
      "ives": 1753,
      "Ġca": 1754,
      "éķ¿": 1755,
      "rol": 1756,
      "Ex": 1757,
      "Ġinformation": 1758,
      "Ġfollow": 1759,
      "Ġrespon": 1760,
      "iqu": 1761,
      "Ġsin": 1762,
      "Ġche": 1763,
      "åĽł": 1764,
      "ms": 1765,
      "Ġgood": 1766,
      "Ġvery": 1767,
      "Ġson": 1768,
      "ource": 1769,
      "pend": 1770,
      "Ġprogram": 1771,
      "ress": 1772,
      "Ġdown": 1773,
      "arch": 1774,
      "begin": 1775,
      "Ġcas": 1776,
      "Ġnow": 1777,
      "earch": 1778,
      "ethod": 1779,
      "ãģ¤": 1780,
      "ĠYou": 1781,
      "Ġdem": 1782,
      ".,": 1783,
      "çĪ": 1784,
      "-b": 1785,
      "ç§į": 1786,
      "hor": 1787,
      "éĩı": 1788,
      "Ġfind": 1789,
      "èĭ": 1790,
      "Ġcu": 1791,
      "Ġbeing": 1792,
      "ner": 1793,
      "ç¬¬": 1794,
      "ä½Ĩ": 1795,
      "æ´»": 1796,
      "Ġdifferent": 1797,
      "cond": 1798,
      "ãģĭãĤī": 1799,
      "col": 1800,
      ".S": 1801,
      "Ġunt": 1802,
      "ä¸ī": 1803,
      "ek": 1804,
      "ç¤¾": 1805,
      "tring": 1806,
      "of": 1807,
      "pre": 1808,
      "aut": 1809,
      "ida": 1810,
      "èĪ": 1811,
      "åĪ©": 1812,
      "Ġown": 1813,
      "ä¿¡": 1814,
      "ĠĠĠĠĠĠĠĠĠĠĠĠĠĠĠĠĠĠĠ": 1815,
      "èº«": 1816,
      "Ġthink": 1817,
      "Ġusing": 1818,
      "åĲį": 1819,
      "ä½į": 1820,
      "ciÃ³n": 1821,
      "Ø§ÙĨ": 1822,
      "ized": 1823,
      "yp": 1824,
      "Ġequ": 1825,
      "Ġshow": 1826,
      "æķĻ": 1827,
      "Ġpoint": 1828,
      "ural": 1829,
      "è¢": 1830,
      "Ġcompl": 1831,
      "sp": 1832,
      "cul": 1833,
      "åĸ": 1834,
      "æ¯Ķ": 1835,
      "ually": 1836,
      "ìł": 1837,
      "It": 1838,
      "ĠFor": 1839,
      ");ĊĊ": 1840,
      "å»º": 1841,
      "ĠmÃ¡s": 1842,
      "ĠAd": 1843,
      "ìĦ": 1844,
      "Ġhand": 1845,
      "cript": 1846,
      "ĠTr": 1847,
      "æŃ£": 1848,
      "Ġsom": 1849,
      "ãĥ¬": 1850,
      "è£": 1851,
      "å®ī": 1852,
      "å·±": 1853,
      "tt": 1854,
      "ios": 1855,
      "ãģªãģĦ": 1856,
      "ody": 1857,
      "ĠrÃ©": 1858,
      "ãĥĹ": 1859,
      "AR": 1860,
      "Ġthose": 1861,
      "ined": 1862,
      "lish": 1863,
      "ãģĽ": 1864,
      "Ġbefore": 1865,
      "\"Ċ": 1866,
      "åºĶ": 1867,
      "vers": 1868,
      "çĶµ": 1869,
      "éľ": 1870,
      "ä»£": 1871,
      "go": 1872,
      "iment": 1873,
      "orn": 1874,
      "Ġposs": 1875,
      "Ġou": 1876,
      "äºĽ": 1877,
      "æł·": 1878,
      "ê°": 1879,
      "æ¬¡": 1880,
      "Ġlist": 1881,
      "ired": 1882,
      "Ã¡n": 1883,
      "40": 1884,
      "://": 1885,
      "Ġagain": 1886,
      "æĹł": 1887,
      "}\\": 1888,
      "urrent": 1889,
      "ger": 1890,
      "ìŀ": 1891,
      "éĶ": 1892,
      "Ġmet": 1893,
      "Ġsame": 1894,
      "å°Ĩ": 1895,
      "item": 1896,
      "EN": 1897,
      "Ġcommun": 1898,
      "èĩªå·±": 1899,
      "Ġfact": 1900,
      "ense": 1901,
      "ìĹĲ": 1902,
      "èĦ": 1903,
      "work": 1904,
      "Ġx": 1905,
      "name": 1906,
      "Ġopt": 1907,
      "Ġsal": 1908,
      "ãģĦãĤĭ": 1909,
      "Ø·": 1910,
      "Ġgl": 1911,
      "22": 1912,
      "çĹ": 1913,
      "çµ": 1914,
      "ĠÙģÙĬ": 1915,
      "Ġpass": 1916,
      "è§£": 1917,
      "çī¹": 1918,
      "ĠZ": 1919,
      "arm": 1920,
      "ior": 1921,
      "ìĿĦ": 1922,
      "æĽ´": 1923,
      "ton": 1924,
      "Ġname": 1925,
      "Ø§Ø±": 1926,
      "por": 1927,
      "ĠLe": 1928,
      "\\end": 1929,
      "ĠSe": 1930,
      "Ġmark": 1931,
      "Ġincre": 1932,
      "ç³»": 1933,
      "Com": 1934,
      "ç®¡": 1935,
      "('": 1936,
      "Ñĩ": 1937,
      "åıª": 1938,
      "lect": 1939,
      "OR": 1940,
      "å±ķ": 1941,
      "ww": 1942,
      "Ġsit": 1943,
      "ĠEx": 1944,
      "ana": 1945,
      "{{": 1946,
      "ç±": 1947,
      "Ġeffect": 1948,
      "ete": 1949,
      "ote": 1950,
      "ued": 1951,
      "ology": 1952,
      "ç¨ĭ": 1953,
      "ãģ£ãģŁ": 1954,
      "be": 1955,
      "Ch": 1956,
      "ĠÐ²": 1957,
      "Ð½Ð¸": 1958,
      "Ġplus": 1959,
      "åĮº": 1960,
      "As": 1961,
      "vern": 1962,
      "ule": 1963,
      "æĪĳä»¬": 1964,
      "ctions": 1965,
      "anc": 1966,
      "æ¡": 1967,
      "ãĥķ": 1968,
      "Ĥ¬": 1969,
      "ray": 1970,
      "ä»İ": 1971,
      "Ġproduct": 1972,
      "Ġlet": 1973,
      "åıĬ": 1974,
      "Ġsupport": 1975,
      "ĠÙħÙĨ": 1976,
      "Ġfamil": 1977,
      "Øµ": 1978,
      "ë¡": 1979,
      "åı¯ä»¥": 1980,
      "----------------": 1981,
      "Ġvalue": 1982,
      "åľº": 1983,
      "tain": 1984,
      "Ġaw": 1985,
      "Ġentre": 1986,
      "å¸¸": 1987,
      "ä»¶": 1988,
      "Ġappro": 1989,
      "Ġorgan": 1990,
      "å¼ı": 1991,
      "Ġ!": 1992,
      "èµĦ": 1993,
      "uro": 1994,
      "ness": 1995,
      "ç¾İ": 1996,
      "Ġmade": 1997,
      "èĲ": 1998,
      "man": 1999,
      "util": 2000,
      "();Ċ": 2001,
      "æ·": 2002,
      "Ġhere": 2003,
      "Ġ=>": 2004,
      "Ġprot": 2005,
      "Ġchild": 2006,
      "Id": 2007,
      "itÃ©": 2008,
      "Ġdr": 2009,
      "ãģ¿": 2010,
      "çģ": 2011,
      "Ġplay": 2012,
      "Ġnumber": 2013,
      "Ġtake": 2014,
      "Ġmain": 2015,
      "Ġ_": 2016,
      "ero": 2017,
      "ãĤ¸": 2018,
      "23": 2019,
      "Ġdev": 2020,
      "ĠSo": 2021,
      "ÑĢÐ°": 2022,
      "uest": 2023,
      "wh": 2024,
      "ãģĦãģ¾ãģĻ": 2025,
      "Ġoper": 2026,
      "ID": 2027,
      "n't": 2028,
      "Ġterm": 2029,
      "ament": 2030,
      "å¥¹": 2031,
      "å¹³": 2032,
      "Ġ`": 2033,
      "Ġtechn": 2034,
      "Ġworld": 2035,
      "Ġcontin": 2036,
      "Ġrest": 2037,
      "left": 2038,
      "Ġsel": 2039,
      "Ġpresent": 2040,
      "AN": 2041,
      "ather": 2042,
      "Ġdirect": 2043,
      "Ġ==": 2044,
      "Ġsk": 2045,
      "è®¾": 2046,
      "ãĥŃ": 2047,
      "ĠCl": 2048,
      "Ġseg": 2049,
      "Ġcase": 2050,
      "view": 2051,
      "Ġchar": 2052,
      "åĬ¡": 2053,
      "åĲĳ": 2054,
      "-f": 2055,
      "ura": 2056,
      "60": 2057,
      "Ġboth": 2058,
      "åıĸ": 2059,
      "Ġproble": 2060,
      "èĥ": 2061,
      ".get": 2062,
      "íķĺ": 2063,
      "Ġwhile": 2064,
      ").Ċ": 2065,
      "ply": 2066,
      "une": 2067,
      "br": 2068,
      "ç²": 2069,
      "æ°ĳ": 2070,
      "ĠĠĠĠĠĠĠĠĠ": 2071,
      "ãĤı": 2072,
      "Ġlife": 2073,
      "åŁº": 2074,
      "Ġactiv": 2075,
      "ĠÑģ": 2076,
      "ploy": 2077,
      "ected": 2078,
      "att": 2079,
      "ify": 2080,
      "ames": 2081,
      "Ġsi": 2082,
      "æ²¡æľī": 2083,
      "ÙĬÙĨ": 2084,
      "-t": 2085,
      "ole": 2086,
      "ved": 2087,
      "ãĤ³": 2088,
      "Ġprovid": 2089,
      "æŃ¤": 2090,
      "alk": 2091,
      "æĢĿ": 2092,
      "Ġant": 2093,
      "Ġcal": 2094,
      "æİ¥": 2095,
      "Ø´": 2096,
      "lex": 2097,
      "Ġmem": 2098,
      "ĠPl": 2099,
      "-d": 2100,
      "ĠSh": 2101,
      "éĹ®": 2102,
      "Ġfound": 2103,
      "ãģ¡": 2104,
      "ared": 2105,
      "Ġenc": 2106,
      "Ġquest": 2107,
      "htt": 2108,
      "Ġref": 2109,
      "è¢«": 2110,
      "ì§": 2111,
      "Ġconsider": 2112,
      "son": 2113,
      "roll": 2114,
      "Ġsay": 2115,
      "ization": 2116,
      "ision": 2117,
      "ih": 2118,
      "Ġhum": 2119,
      "Ġpriv": 2120,
      "gg": 2121,
      "ĠFr": 2122,
      "land": 2123,
      "ìĿĺ": 2124,
      "Ġsus": 2125,
      "Ð¾Ð²": 2126,
      "ĠGr": 2127,
      "32": 2128,
      "çľŁ": 2129,
      "come": 2130,
      "AL": 2131,
      "add": 2132,
      "iven": 2133,
      "vec": 2134,
      "èĢĥ": 2135,
      "{Ċ": 2136,
      "äºĮ": 2137,
      "Ġinvest": 2138,
      "ä»Ĭ": 2139,
      "ser": 2140,
      "fig": 2141,
      "ivid": 2142,
      "ãĥ³ãĥ": 2143,
      "dit": 2144,
      "eta": 2145,
      "åħĥ": 2146,
      "ĠLa": 2147,
      "Res": 2148,
      "ists": 2149,
      "Ġhealth": 2150,
      "_d": 2151,
      "ç¡": 2152,
      "Ð·": 2153,
      "ST": 2154,
      "Un": 2155,
      "po": 2156,
      "ui": 2157,
      "Ñĸ": 2158,
      "ĠBut": 2159,
      ".m": 2160,
      "å¥³": 2161,
      "Ġlead": 2162,
      "eter": 2163,
      "ron": 2164,
      "ras": 2165,
      "aÃ§Ã£o": 2166,
      "æº": 2167,
      "Ġbusiness": 2168,
      "{\\": 2169,
      ")$": 2170,
      "/Ċ": 2171,
      "å¹¶": 2172,
      "ength": 2173,
      "Ġmas": 2174,
      "Ġanal": 2175,
      "Ġday": 2176,
      "é¦": 2177,
      "ought": 2178,
      "ç«ĭ": 2179,
      "é¢ĺ": 2180,
      "ãĤ°": 2181,
      "åıĹ": 2182,
      "Ġil": 2183,
      "æĮģ": 2184,
      "ama": 2185,
      "ral": 2186,
      "çĸ": 2187,
      "Ġ,": 2188,
      "set": 2189,
      "éĴ": 2190,
      "ving": 2191,
      "Ġcare": 2192,
      "Ġmar": 2193,
      "å·²": 2194,
      "æĤ": 2195,
      "Ġhist": 2196,
      "cer": 2197,
      "ouse": 2198,
      "å°ĳ": 2199,
      "ault": 2200,
      "ãĤ«": 2201,
      "ones": 2202,
      "ross": 2203,
      ",âĢĿ": 2204,
      "âĢĵ": 2205,
      "ias": 2206,
      "ety": 2207,
      "çĥ": 2208,
      "ãĤµ": 2209,
      "åı¸": 2210,
      "ç¼": 2211,
      "ccess": 2212,
      "ç¦": 2213,
      "Ġdos": 2214,
      "Ġìŀ": 2215,
      "ves": 2216,
      "ements": 2217,
      "Ġmust": 2218,
      "Ġos": 2219,
      "Name": 2220,
      "|Ċ": 2221,
      "è®¡": 2222,
      "ÙĦÙī": 2223,
      "ï¼Ľ": 2224,
      "fo": 2225,
      "åİŁ": 2226,
      "Ġtype": 2227,
      "ä¸¤": 2228,
      "iver": 2229,
      "Type": 2230,
      "28": 2231,
      "ä»Ģ": 2232,
      "åı£": 2233,
      "Ġexpl": 2234,
      "Ġstill": 2235,
      "akes": 2236,
      "Ġreport": 2237,
      "ĠNew": 2238,
      "iron": 2239,
      "ĠDe": 2240,
      "-m": 2241,
      "Ġcert": 2242,
      "Ġbest": 2243,
      "Ġimportant": 2244,
      "oh": 2245,
      "ç½ĳ": 2246,
      "La": 2247,
      "stand": 2248,
      "ats": 2249,
      "ĠX": 2250,
      "åģļ": 2251,
      "Ġlearn": 2252,
      "Ġdesign": 2253,
      "21": 2254,
      "ĠÂ«": 2255,
      "æ®": 2256,
      "åħĪ": 2257,
      "åŀ": 2258,
      "ë¡ľ": 2259,
      "tre": 2260,
      "))": 2261,
      "ified": 2262,
      "Ð¿": 2263,
      "ustom": 2264,
      "Ġna": 2265,
      "ales": 2266,
      "æĶ¿": 2267,
      "Ġpost": 2268,
      "for": 2269,
      "Ġmov": 2270,
      "ds": 2271,
      "Ġspec": 2272,
      "che": 2273,
      "ason": 2274,
      "èį": 2275,
      "Ġadv": 2276,
      "ogr": 2277,
      "Ġerr": 2278,
      "========": 2279,
      "ĠEl": 2280,
      "Ã©t": 2281,
      "This": 2282,
      "Ġlevel": 2283,
      "æł¼": 2284,
      "af": 2285,
      "ativ": 2286,
      "Ġbre": 2287,
      "ĉĉĉ": 2288,
      "Ġsem": 2289,
      "27": 2290,
      "èĢģ": 2291,
      "ĠĠĠĠĠĠĠĠĠĠĠĠĠĠĠĠĠĠĠĠĠĠĠĠĠĠĠĠĠĠĠĠ": 2292,
      "ients": 2293,
      "ĠìĿ": 2294,
      "Ġnon": 2295,
      "ĠInd": 2296,
      "Ġpop": 2297,
      "ĠRes": 2298,
      "ä»Ģä¹Ī": 2299,
      "Ġdisc": 2300,
      "Ġperform": 2301,
      "ãģķãĤĮ": 2302,
      "ene": 2303,
      ",\"": 2304,
      "IC": 2305,
      "Ġber": 2306,
      "IT": 2307,
      "med": 2308,
      "Ø§Ùħ": 2309,
      "Ġintern": 2310,
      "íķľ": 2311,
      "Ġvol": 2312,
      "Ġstat": 2313,
      "Ġmill": 2314,
      "arly": 2315,
      "Ġmais": 2316,
      "Ġmethod": 2317,
      "return": 2318,
      "bs": 2319,
      "Ġver": 2320,
      "ically": 2321,
      "rem": 2322,
      "Cl": 2323,
      "Ġstate": 2324,
      "Ġenv": 2325,
      "ĠÙĬ": 2326,
      "ane": 2327,
      "cal": 2328,
      "ĠHow": 2329,
      "ĠÐ½": 2330,
      "ience": 2331,
      "ender": 2332,
      "è²": 2333,
      "Ġder": 2334,
      "åĳĺ": 2335,
      "ining": 2336,
      "ita": 2337,
      "ref": 2338,
      "adas": 2339,
      "adi": 2340,
      "æĻĤ": 2341,
      "iving": 2342,
      "ë¥": 2343,
      "èī²": 2344,
      "26": 2345,
      "Ġmil": 2346,
      "ency": 2347,
      "Ġiss": 2348,
      "rop": 2349,
      "ĠAp": 2350,
      "Ġcle": 2351,
      "Ġimp": 2352,
      "ĠIs": 2353,
      "Ø¶": 2354,
      "ours": 2355,
      "Ġbas": 2356,
      "ences": 2357,
      "ãĢĭ": 2358,
      "Ã¤": 2359,
      "Ġmemb": 2360,
      "Ġrun": 2361,
      "çĶ±": 2362,
      "ability": 2363,
      "åķĨ": 2364,
      "ç»ĵ": 2365,
      "Ġaround": 2366,
      "è½¦": 2367,
      "çĽ´": 2368,
      "ãĢĬ": 2369,
      "Ġide": 2370,
      "ĠOn": 2371,
      "80": 2372,
      "¸°": 2373,
      "ush": 2374,
      "ission": 2375,
      "duct": 2376,
      "Ġce": 2377,
      "amente": 2378,
      "uel": 2379,
      "RE": 2380,
      "yle": 2381,
      "alse": 2382,
      "æ¨": 2383,
      "Ġsecond": 2384,
      "Ġvers": 2385,
      "El": 2386,
      "agn": 2387,
      "Ñħ": 2388,
      "\\begin": 2389,
      "reg": 2390,
      "Ġplace": 2391,
      "ning": 2392,
      "Ġvous": 2393,
      "ention": 2394,
      "å¤´": 2395,
      "not": 2396,
      "åĲĦ": 2397,
      "ï¼Įè¿Ļ": 2398,
      "Ġlim": 2399,
      "ador": 2400,
      "Ġmat": 2401,
      "ãĤĬãģ¾ãģĻ": 2402,
      "ç§ĳ": 2403,
      "Ġprim": 2404,
      "è±": 2405,
      "Ø®": 2406,
      "Ġrece": 2407,
      "éª": 2408,
      "Ġqual": 2409,
      "cur": 2410,
      "ĠâĢĺ": 2411,
      "Ġallow": 2412,
      "Ġconn": 2413,
      "Ġlast": 2414,
      "ams": 2415,
      "Ġduring": 2416,
      "Ġorder": 2417,
      "ç»Ļ": 2418,
      "ãĥ¡": 2419,
      "ãģĶ": 2420,
      "We": 2421,
      "soci": 2422,
      "æĪĸ": 2423,
      "äº¤": 2424,
      "conom": 2425,
      "bl": 2426,
      "ĠĠĠĠĠĠ": 2427,
      "Ġmodel": 2428,
      "æĬĢ": 2429,
      ".d": 2430,
      "çı": 2431,
      "åł´": 2432,
      "ains": 2433,
      "tab": 2434,
      "Ġgreat": 2435,
      "æĸĻ": 2436,
      "ĠThey": 2437,
      "à¥": 2438,
      "Ġleg": 2439,
      "ä¸ĩ": 2440,
      "åįģ": 2441,
      "è®©": 2442,
      "é»": 2443,
      "fic": 2444,
      "present": 2445,
      "Ġaff": 2446,
      "Ġident": 2447,
      "Ad": 2448,
      "ìĭ": 2449,
      "AS": 2450,
      "ho": 2451,
      "ways": 2452,
      "ception": 2453,
      "ĠCol": 2454,
      "To": 2455,
      "Ġbook": 2456,
      "Ġwithout": 2457,
      "this": 2458,
      "æµ·": 2459,
      "ãģ§ãģį": 2460,
      "Ġfinal": 2461,
      "Ø²": 2462,
      "Ã¨re": 2463,
      "crib": 2464,
      "iter": 2465,
      "Ġtop": 2466,
      "æĮĩ": 2467,
      "essage": 2468,
      "æ¥Ń": 2469,
      "ãģĤãĤĭ": 2470,
      "Ġ||": 2471,
      "æīĵ": 2472,
      "æ±Ĥ": 2473,
      "Ġtoo": 2474,
      "ä»»": 2475,
      "(\\": 2476,
      "Ġmeng": 2477,
      "Ġperm": 2478,
      "ãĥĨ": 2479,
      "åĥ": 2480,
      "iversity": 2481,
      "](": 2482,
      "ential": 2483,
      "ends": 2484,
      "Ġport": 2485,
      "Ar": 2486,
      "Ġproper": 2487,
      "ito": 2488,
      "å·¥ä½ľ": 2489,
      "Ð¹": 2490,
      "amos": 2491,
      "æµģ": 2492,
      "ê³ł": 2493,
      "aterial": 2494,
      "Ġavec": 2495,
      "Ġwrit": 2496,
      "ï¼ĮæĪĳ": 2497,
      "Ġproject": 2498,
      "29": 2499,
      "irc": 2500,
      "Ġben": 2501,
      "ĠAmer": 2502,
      "ots": 2503,
      "ãģ¨ãģĦ": 2504,
      "part": 2505,
      "yl": 2506,
      "Ġsmall": 2507,
      "umn": 2508,
      "Ġpel": 2509,
      "Ġstand": 2510,
      "ĠØ¥": 2511,
      "acter": 2512,
      "ium": 2513,
      "_m": 2514,
      "Ġ*/Ċ": 2515,
      "Ġcurrent": 2516,
      "Ġapplic": 2517,
      "iento": 2518,
      "è·¯": 2519,
      "Ġsocial": 2520,
      "è¥": 2521,
      "the": 2522,
      "Ġsl": 2523,
      "ination": 2524,
      "Ġreally": 2525,
      "ĠÐ¸": 2526,
      "ister": 2527,
      "ä¸ĸ": 2528,
      "ext": 2529,
      "),Ċ": 2530,
      "æĬĬ": 2531,
      "ette": 2532,
      "Ġgoing": 2533,
      "æ»": 2534,
      "čĊ": 2535,
      "Ġresearch": 2536,
      "Ġexample": 2537,
      "èĻ": 2538,
      "ĠThere": 2539,
      "ãģ¾ãģĹãģŁ": 2540,
      "Ġmult": 2541,
      "Ġtry": 2542,
      "Ġtri": 2543,
      "ja": 2544,
      "ino": 2545,
      "Tr": 2546,
      "çĬ": 2547,
      "è¯Ŀ": 2548,
      "Ġfo": 2549,
      "ä½ķ": 2550,
      "Ð³": 2551,
      "Ø£": 2552,
      "ìľ": 2553,
      "unt": 2554,
      "_c": 2555,
      "å®¹": 2556,
      "Ã¨s": 2557,
      "Ġbuild": 2558,
      "Ġnos": 2559,
      "AC": 2560,
      "uer": 2561,
      "Ġret": 2562,
      "Ġmarket": 2563,
      "ething": 2564,
      "aire": 2565,
      "Ġthree": 2566,
      "Ġgrow": 2567,
      "Ġhab": 2568,
      "Ġfeel": 2569,
      "Ġeste": 2570,
      "198": 2571,
      "Ġlocal": 2572,
      "ration": 2573,
      "æ°Ķ": 2574,
      "abor": 2575,
      "Ġcost": 2576,
      "ï¼Įä½Ĩ": 2577,
      "Ġmight": 2578,
      "Ġtrue": 2579,
      "éŁ": 2580,
      "less": 2581,
      "Ġcontrol": 2582,
      "Ġinterest": 2583,
      "åħ¬åı¸": 2584,
      "è¥¿": 2585,
      "ĠI'": 2586,
      "Ġcoun": 2587,
      "Ġexpect": 2588,
      "Ġhome": 2589,
      "new": 2590,
      "Ġmus": 2591,
      "Īëĭ¤": 2592,
      "za": 2593,
      "Ã¼": 2594,
      "Ġkey": 2595,
      "Ġpo": 2596,
      ".p": 2597,
      "å±±": 2598,
      "ä¼ģ": 2599,
      "ãģ®ãģ§": 2600,
      "def": 2601,
      "\\s": 2602,
      "aim": 2603,
      "Ġpower": 2604,
      "Ġpot": 2605,
      "lu": 2606,
      "ĠOr": 2607,
      "è¨Ģ": 2608,
      "éĵ": 2609,
      "Ġopen": 2610,
      "ĠPr": 2611,
      "Al": 2612,
      "ha": 2613,
      "Ġfac": 2614,
      "Ġpay": 2615,
      "********": 2616,
      "åĨį": 2617,
      "Ġelse": 2618,
      "Ġeas": 2619,
      "Ġobject": 2620,
      "åĦ": 2621,
      "Ãµ": 2622,
      "abel": 2623,
      "(Ċ": 2624,
      "å®Į": 2625,
      "LE": 2626,
      "ï¼Įä¸į": 2627,
      "ĠÐ¾": 2628,
      "å¼º": 2629,
      "ç¤º": 2630,
      "æľį": 2631,
      "Cont": 2632,
      "ä¸ŃåĽ½": 2633,
      "play": 2634,
      "Ġchang": 2635,
      "ãĤĪãģĨ": 2636,
      "æį®": 2637,
      "Ġhead": 2638,
      "ëı": 2639,
      "åĪ«": 2640,
      "å°±æĺ¯": 2641,
      "ape": 2642,
      "å¿ħ": 2643,
      "é©": 2644,
      "Ġeng": 2645,
      "Ġcell": 2646,
      "ook": 2647,
      "ãĥŀ": 2648,
      "engan": 2649,
      "Ġexp": 2650,
      "]]": 2651,
      "è³": 2652,
      "åŀĭ": 2653,
      "ĠNo": 2654,
      "ĠMar": 2655,
      "Val": 2656,
      "Ġpur": 2657,
      "Ġìł": 2658,
      "åıĺ": 2659,
      "Ġris": 2660,
      "éĸĵ": 2661,
      "Ġwater": 2662,
      "Ġgovern": 2663,
      "Ġhapp": 2664,
      ".c": 2665,
      "thing": 2666,
      "ĠMed": 2667,
      "sh": 2668,
      "ĠEst": 2669,
      "Ġline": 2670,
      "arge": 2671,
      "Ġuma": 2672,
      "den": 2673,
      "Ãµes": 2674,
      "()Ċ": 2675,
      "Ġu": 2676,
      "px": 2677,
      "Ġpod": 2678,
      "Ġwithin": 2679,
      "Ġless": 2680,
      "ee": 2681,
      "Ġredu": 2682,
      "erc": 2683,
      "éĹ¨": 2684,
      "icle": 2685,
      "inci": 2686,
      "ables": 2687,
      "Ã©m": 2688,
      "å½¢": 2689,
      "\\h": 2690,
      "ato": 2691,
      "face": 2692,
      "Ġelect": 2693,
      "ÑĢÐµ": 2694,
      "endo": 2695,
      "List": 2696,
      "Ð±": 2697,
      "mente": 2698,
      "Ġfew": 2699,
      "ÙĬØ±": 2700,
      "Ġthings": 2701,
      "ìļ": 2702,
      "Ã©es": 2703,
      "Ġbetter": 2704,
      "35": 2705,
      "å¤Ħ": 2706,
      "ä»·": 2707,
      "ãĤ£": 2708,
      "ĠaÃ±": 2709,
      "æĶ¾": 2710,
      "uck": 2711,
      "ances": 2712,
      "éĽĨ": 2713,
      "ulation": 2714,
      "omen": 2715,
      "Ġprom": 2716,
      "ĠSch": 2717,
      "rist": 2718,
      "Ġincluding": 2719,
      "arl": 2720,
      "Ġstudy": 2721,
      "ples": 2722,
      "cont": 2723,
      "Ġmanag": 2724,
      "éĻ¢": 2725,
      "Ġmom": 2726,
      "ently": 2727,
      "....": 2728,
      "-Ċ": 2729,
      "try": 2730,
      "arget": 2731,
      "ÙĩØ§": 2732,
      "Ġsomething": 2733,
      "Ġtot": 2734,
      "ott": 2735,
      "_l": 2736,
      "è©": 2737,
      "vo": 2738,
      "åĻ": 2739,
      "Ġcho": 2740,
      "_f": 2741,
      "Ġess": 2742,
      "Ġdest": 2743,
      "æ¼": 2744,
      "ç¥ŀ": 2745,
      "Ġgroup": 2746,
      "ately": 2747,
      "Ġplan": 2748,
      "Ġlaw": 2749,
      "requ": 2750,
      "ervice": 2751,
      "ãģ«ãģª": 2752,
      "vert": 2753,
      "ived": 2754,
      "åħī": 2755,
      "IS": 2756,
      "ification": 2757,
      "ĠØ§ÙĦØª": 2758,
      "encia": 2759,
      "å½±": 2760,
      "akan": 2761,
      "Ġanother": 2762,
      "ua": 2763,
      "ãģĦãģŁ": 2764,
      "```": 2765,
      "Ġpa": 2766,
      "Ġsuper": 2767,
      "odel": 2768,
      "çĭ": 2769,
      "å²": 2770,
      "ãģªãģ©": 2771,
      "by": 2772,
      "Ġschool": 2773,
      "æ³¨": 2774,
      "æľ¯": 2775,
      "\\hline": 2776,
      "Ġlog": 2777,
      "Ġcome": 2778,
      "-l": 2779,
      "ario": 2780,
      "æĶ¶": 2781,
      "90": 2782,
      "Ġchange": 2783,
      "itive": 2784,
      "ç»Ł": 2785,
      "Ġwr": 2786,
      "åįķ": 2787,
      "ask": 2788,
      "ily": 2789,
      "leg": 2790,
      "{tab": 2791,
      "ope": 2792,
      "ailable": 2793,
      "ãģĦãģ¦": 2794,
      "itor": 2795,
      "ĠAm": 2796,
      "ĠPh": 2797,
      "Ġbased": 2798,
      "itle": 2799,
      "Ġput": 2800,
      "ava": 2801,
      "ena": 2802,
      "\":": 2803,
      "64": 2804,
      "ether": 2805,
      "ocument": 2806,
      "æĬ¥": 2807,
      "Ġvot": 2808,
      "back": 2809,
      ".âĢĿ": 2810,
      "Ġmot": 2811,
      "åıĪ": 2812,
      "{tabular": 2813,
      "Le": 2814,
      "ãĤŃ": 2815,
      "date": 2816,
      "ì§Ģ": 2817,
      "iod": 2818,
      "éľĢ": 2819,
      "ä¸ľ": 2820,
      "Ġprivate": 2821,
      "\",Ċ": 2822,
      "èĤ²": 2823,
      "ware": 2824,
      "ler": 2825,
      "Ġ%": 2826,
      "ê°Ģ": 2827,
      "âĢĿ,": 2828,
      "70": 2829,
      "Ġkeep": 2830,
      "Ġbeh": 2831,
      "ici": 2832,
      "asi": 2833,
      "ng": 2834,
      "ãģ§ãģ¯": 2835,
      "æīį": 2836,
      "ÐµÐ½": 2837,
      "ĠâĢĶ": 2838,
      ".C": 2839,
      "arr": 2840,
      "gress": 2841,
      "çķĮ": 2842,
      "çłĶ": 2843,
      "ĠĊĊ": 2844,
      "Ġpract": 2845,
      "Ġindivid": 2846,
      "Ġini": 2847,
      "æłĩ": 2848,
      "rain": 2849,
      "String": 2850,
      "da": 2851,
      "Ø°": 2852,
      "Ã¢": 2853,
      "ĠUS": 2854,
      "Ġarg": 2855,
      "Ġunderstand": 2856,
      "ittle": 2857,
      "If": 2858,
      "Ġlib": 2859,
      "Ġmonth": 2860,
      "ference": 2861,
      "ĠComm": 2862,
      "åı¯èĥ½": 2863,
      "ĠAll": 2864,
      "æķ´": 2865,
      "ream": 2866,
      "!Ċ": 2867,
      "Ġinde": 2868,
      "load": 2869,
      "ican": 2870,
      "Ġexist": 2871,
      "ãĤ·ãĥ": 2872,
      "jo": 2873,
      "Ġask": 2874,
      "éĿŀ": 2875,
      "lease": 2876,
      "no": 2877,
      "AM": 2878,
      "45": 2879,
      "comm": 2880,
      "Ġsobre": 2881,
      "æħ": 2882,
      "Ġfollowing": 2883,
      "idth": 2884,
      "çĻ½": 2885,
      "ands": 2886,
      "equ": 2887,
      "Ġnet": 2888,
      "Ġespe": 2889,
      "Ġaccess": 2890,
      "frac": 2891,
      "umm": 2892,
      "33": 2893,
      "å¸Ī": 2894,
      "ĠÃ©t": 2895,
      "class": 2896,
      "ĉĉĉĉ": 2897,
      "è§ģ": 2898,
      "ë¥¼": 2899,
      "ably": 2900,
      "action": 2901,
      "Ġans": 2902,
      "ãĥĩ": 2903,
      "Ġimpro": 2904,
      "Ġann": 2905,
      "Ġturn": 2906,
      "ording": 2907,
      "Ġocc": 2908,
      "ç»Ħ": 2909,
      "rr": 2910,
      "Ġprop": 2911,
      "nya": 2912,
      "Ġorig": 2913,
      "Ġuntuk": 2914,
      "ĠTo": 2915,
      "âĢĻre": 2916,
      "Ap": 2917,
      "Ġ--": 2918,
      "Ġtyp": 2919,
      "Ġdengan": 2920,
      "Ġfield": 2921,
      "Ġ>": 2922,
      "Ġview": 2923,
      "clus": 2924,
      "ãģ¨ãģĦãģĨ": 2925,
      "Ġutil": 2926,
      "itional": 2927,
      "æł¡": 2928,
      "ĠShe": 2929,
      "Ġnever": 2930,
      "He": 2931,
      "itch": 2932,
      "è§Ħ": 2933,
      "è´¨": 2934,
      "ç©º": 2935,
      "aciones": 2936,
      "ìķ": 2937,
      "Ġsince": 2938,
      "Ġemploy": 2939,
      "ãģ°": 2940,
      "____": 2941,
      "è®¤": 2942,
      "Ġtext": 2943,
      "acy": 2944,
      "iques": 2945,
      "ë¦": 2946,
      "ÙĪÙĦ": 2947,
      "åħ·": 2948,
      "param": 2949,
      "Ġcult": 2950,
      "ĠGo": 2951,
      "è¿ĳ": 2952,
      "ĠÐº": 2953,
      "Ġconc": 2954,
      "ä»ĸä»¬": 2955,
      "},": 2956,
      "ett": 2957,
      "ards": 2958,
      "Ġcomb": 2959,
      "è¯¥": 2960,
      "ems": 2961,
      "Ġcount": 2962,
      "ĠMan": 2963,
      "Ġstruct": 2964,
      "Ġalways": 2965,
      "åĶ": 2966,
      "åıĤ": 2967,
      "EC": 2968,
      "irm": 2969,
      "ribut": 2970,
      "ries": 2971,
      "Ġnext": 2972,
      "ume": 2973,
      "ĠAf": 2974,
      "Ġagainst": 2975,
      "Ġmean": 2976,
      "Ø«": 2977,
      "æĶ¹": 2978,
      "Ġhuman": 2979,
      "Ġtamb": 2980,
      "Ġfut": 2981,
      "https": 2982,
      "Ġservice": 2983,
      "ìĿĢ": 2984,
      "You": 2985,
      "For": 2986,
      "ources": 2987,
      "æ£": 2988,
      "Ġtrad": 2989,
      "Ġdeterm": 2990,
      "çº¿": 2991,
      "Â»": 2992,
      "Ġmaterial": 2993,
      "Ġtreat": 2994,
      "ĠØ§ÙĦØ£": 2995,
      "sel": 2996,
      "Ġpued": 2997,
      "raw": 2998,
      "èĩ³": 2999,
      "Ġsignific": 3000,
      "æĢ»": 3001,
      "å§ĭ": 3002,
      "Ġprovide": 3003,
      "}_{": 3004,
      "bu": 3005,
      "éĢł": 3006,
      "plement": 3007,
      "Ã´": 3008,
      "ĠÙĪØ§ÙĦ": 3009,
      "åĻ¨": 3010,
      "ÑĢÐ¸": 3011,
      "99": 3012,
      "ãĢĤĊĊ": 3013,
      "æ²»": 3014,
      "é£İ": 3015,
      "Ġold": 3016,
      "Ġbenef": 3017,
      "Ġmes": 3018,
      "Ġhard": 3019,
      "Ġsitu": 3020,
      "Data": 3021,
      "Ġpossible": 3022,
      "æģ¯": 3023,
      "over": 3024,
      "*{": 3025,
      "ÑĨ": 3026,
      "èĮ": 3027,
      "antes": 3028,
      "ocus": 3029,
      "ãĥĥãĥĪ": 3030,
      "Ġsont": 3031,
      "ï¼ļâĢľ": 3032,
      "å¯¼": 3033,
      "Ġalg": 3034,
      "Ġcreate": 3035,
      "Ġsever": 3036,
      "}}Ċ": 3037,
      "_p": 3038,
      "èİ": 3039,
      "ograph": 3040,
      "æĶ¯": 3041,
      "é£Ł": 3042,
      "Ġappe": 3043,
      "Ġund": 3044,
      "Ġsing": 3045,
      "Ã©ri": 3046,
      "ç±»": 3047,
      "ET": 3048,
      "ump": 3049,
      "Ġcustom": 3050,
      "ãĤ¦": 3051,
      "Ġeduc": 3052,
      "ä¸ĵ": 3053,
      "Ã©d": 3054,
      "åŁİ": 3055,
      "Ġid": 3056,
      "ï½": 3057,
      "ĠBl": 3058,
      "Ġfree": 3059,
      "ä¼ł": 3060,
      "Ġê°": 3061,
      "Ġbelie": 3062,
      "ÂłÂł": 3063,
      "åĩł": 3064,
      "Ġnull": 3065,
      "ĮĢ": 3066,
      "Ġfile": 3067,
      "center": 3068,
      "Ġdeb": 3069,
      "ironment": 3070,
      "aces": 3071,
      "RO": 3072,
      "Ġinc": 3073,
      "åŃĺ": 3074,
      "ases": 3075,
      "Ġdom": 3076,
      "cription": 3077,
      "è°ĥ": 3078,
      "alam": 3079,
      "elle": 3080,
      "entes": 3081,
      "org": 3082,
      "èŃ": 3083,
      "Ġevent": 3084,
      "eral": 3085,
      "æĬķ": 3086,
      "Ġindust": 3087,
      "ED": 3088,
      "ourn": 3089,
      "ç®¡çĲĨ": 3090,
      "Ġbro": 3091,
      "indow": 3092,
      "éĢī": 3093,
      "æ¯ı": 3094,
      "Ð½Ð°": 3095,
      "ergy": 3096,
      "-c": 3097,
      "Ġbody": 3098,
      "vious": 3099,
      "Ġuser": 3100,
      "ista": 3101,
      "Ġindividual": 3102,
      "Ġlot": 3103,
      "Ġâ": 3104,
      "åĮĹ": 3105,
      "ãĤª": 3106,
      "iol": 3107,
      "Ġprinci": 3108,
      ".l": 3109,
      "Ġdon't": 3110,
      "pression": 3111,
      "ä¾Ľ": 3112,
      "å¼ķ": 3113,
      "Ġgre": 3114,
      "Ġsat": 3115,
      "è®°": 3116,
      "Ġsent": 3117,
      "æĿ¡": 3118,
      "],": 3119,
      "Ã¶": 3120,
      "å¤ª": 3121,
      "ivo": 3122,
      "Ġsure": 3123,
      "Ġgiven": 3124,
      "do": 3125,
      "Ġparticip": 3126,
      "Ġlittle": 3127,
      "lev": 3128,
      "åĭķ": 3129,
      "inter": 3130,
      "Ġrespect": 3131,
      "Ġprofess": 3132,
      "ç½®": 3133,
      "Ġproblem": 3134,
      "Ġstep": 3135,
      "Ġavailable": 3136,
      "Ġrepresent": 3137,
      "}^{": 3138,
      "ĠÙĥ": 3139,
      "ling": 3140,
      "Ġparticular": 3141,
      "åĮ»": 3142,
      "ï¼ģĊ": 3143,
      "ille": 3144,
      "ira": 3145,
      "ails": 3146,
      "ç®Ĺ": 3147,
      "ĠÂ»": 3148,
      "aÃ±": 3149,
      "Ġstudents": 3150,
      "è¦ĭ": 3151,
      "Ġmeas": 3152,
      "ĠCent": 3153,
      "åıį": 3154,
      "urther": 3155,
      "idos": 3156,
      ".f": 3157,
      "ï¼Įåľ¨": 3158,
      "ÙĪÙĨ": 3159,
      "ĠPar": 3160,
      "stit": 3161,
      "åıĳå±ķ": 3162,
      "ê²": 3163,
      "èµ°": 3164,
      "ä½ı": 3165,
      "Ġë°": 3166,
      "ìĬ": 3167,
      "Ġresults": 3168,
      "Ġvoid": 3169,
      "ĠÐ´": 3170,
      "oney": 3171,
      "ãĥĲ": 3172,
      "Ġtotal": 3173,
      "Ġrecord": 3174,
      "].": 3175,
      "oud": 3176,
      "é¡¹": 3177,
      "Ġlight": 3178,
      "åĽĽ": 3179,
      "ĠĠĠĠĠĠĠĠĠĠĠĠĠĠĠĠĠĠĠĠĠĠĠ": 3180,
      "ides": 3181,
      "enci": 3182,
      "Ġable": 3183,
      "####": 3184,
      "order": 3185,
      "Ġnorm": 3186,
      "ij": 3187,
      "abil": 3188,
      "angu": 3189,
      "ret": 3190,
      "Ġpersonal": 3191,
      "ION": 3192,
      "ector": 3193,
      "Ð¾Ð´": 3194,
      "Ġden": 3195,
      "197": 3196,
      "ìĦľ": 3197,
      "',Ċ": 3198,
      "ä½¿çĶ¨": 3199,
      ".âĢĿĊ": 3200,
      "çº§": 3201,
      "Ġrespons": 3202,
      "idence": 3203,
      "éħį": 3204,
      "ãģ«ãģ¯": 3205,
      "è¿Ļä¸ª": 3206,
      "AP": 3207,
      "ç¢": 3208,
      "Ġgot": 3209,
      ".t": 3210,
      "ither": 3211,
      "åįĹ": 3212,
      "åĢĻ": 3213,
      "Ġoften": 3214,
      "Ġ///": 3215,
      "let": 3216,
      "Ð¾Ð»": 3217,
      "Ġdie": 3218,
      "Ġmel": 3219,
      "ml": 3220,
      ".g": 3221,
      "Ġsw": 3222,
      "æĸ½": 3223,
      "åĥı": 3224,
      "opy": 3225,
      "è»": 3226,
      "AD": 3227,
      "Ø§Ø³": 3228,
      "å£°": 3229,
      "ured": 3230,
      "Ġchildren": 3231,
      "gin": 3232,
      "æ¶Ī": 3233,
      "Ġrequire": 3234,
      "è¿Ĳ": 3235,
      "ox": 3236,
      "ĠTe": 3237,
      "\\section": 3238,
      "è§ī": 3239,
      "ffic": 3240,
      "ĠØŃ": 3241,
      "æ¡Ī": 3242,
      "31": 3243,
      "Ġapp": 3244,
      "Ġcompany": 3245,
      "Ġspecific": 3246,
      "la": 3247,
      "è®º": 3248,
      "Ġpub": 3249,
      "ysis": 3250,
      "ëĵ": 3251,
      "çħ": 3252,
      "US": 3253,
      "éł": 3254,
      "å¿«": 3255,
      "åı°": 3256,
      "36": 3257,
      "ora": 3258,
      "Ġpri": 3259,
      "ÑĪ": 3260,
      "Ġpap": 3261,
      "ga": 3262,
      "å®¢": 3263,
      "Ġmoment": 3264,
      "obal": 3265,
      "ãĥģ": 3266,
      "Ø§Ø¯": 3267,
      "ĠDes": 3268,
      "aux": 3269,
      "Ġvo": 3270,
      "'re": 3271,
      "ÃŃs": 3272,
      "idades": 3273,
      "Ġemb": 3274,
      "ories": 3275,
      "apt": 3276,
      "Ġje": 3277,
      "Ġcertain": 3278,
      "Ġdig": 3279,
      "Ġsuccess": 3280,
      "è£ħ": 3281,
      "tegr": 3282,
      "éĹ®é¢ĺ": 3283,
      "Ġ{{": 3284,
      "enn": 3285,
      "ãĥĸ": 3286,
      "fe": 3287,
      "ajor": 3288,
      "ãĥī": 3289,
      "On": 3290,
      "æ§": 3291,
      "íķ´": 3292,
      "è¿Ľè¡Į": 3293,
      "ê¸°": 3294,
      "opt": 3295,
      "ĠBe": 3296,
      "ended": 3297,
      "ĠUniversity": 3298,
      "Ġcur": 3299,
      "thers": 3300,
      "idade": 3301,
      "å¸¦": 3302,
      "Ġoffer": 3303,
      "Ġbar": 3304,
      "Ġgive": 3305,
      "Ġexperience": 3306,
      "Ġprob": 3307,
      "align": 3308,
      "èħ": 3309,
      "ird": 3310,
      "Īĺ": 3311,
      "aps": 3312,
      "Ġinclude": 3313,
      "Ġinit": 3314,
      "Ø§Ø¨": 3315,
      "Ġleft": 3316,
      "ä¹¦": 3317,
      "ãģĿãģ®": 3318,
      "Ġaccount": 3319,
      "unic": 3320,
      "åħ±": 3321,
      "Ġeconom": 3322,
      "æ¸ħ": 3323,
      "Ġarea": 3324,
      "æ°Ĺ": 3325,
      "ĠSp": 3326,
      "icro": 3327,
      "Ġmeans": 3328,
      "å¦Ĥæŀľ": 3329,
      "ury": 3330,
      "Ġindic": 3331,
      "Ġlarge": 3332,
      "emos": 3333,
      "çĹħ": 3334,
      "Col": 3335,
      "ãĤ¤ãĥ³": 3336,
      "Ġgen": 3337,
      "ares": 3338,
      "ground": 3339,
      "éĻĲ": 3340,
      "aint": 3341,
      "):": 3342,
      "Ġcourse": 3343,
      "åĽ¾": 3344,
      "):Ċ": 3345,
      "æºĲ": 3346,
      "Ġfamily": 3347,
      "icy": 3348,
      "Ġcorre": 3349,
      "Ġneg": 3350,
      "const": 3351,
      "34": 3352,
      "åı·": 3353,
      "ude": 3354,
      "**Ċ": 3355,
      "uh": 3356,
      "ãĤ¨": 3357,
      "è¯ģ": 3358,
      "ka": 3359,
      "æĳ": 3360,
      "\">": 3361,
      "li": 3362,
      "ãģĺ": 3363,
      "çĬ¶": 3364,
      "lt": 3365,
      "ç¡®": 3366,
      "ä¸įæĺ¯": 3367,
      "çľ¼": 3368,
      "Ġlow": 3369,
      "çª": 3370,
      "Ġservices": 3371,
      "rict": 3372,
      "ĠEng": 3373,
      "æĹ¶éĹ´": 3374,
      "ĠCont": 3375,
      "What": 3376,
      "Ġpen": 3377,
      "ped": 3378,
      "atus": 3379,
      "Ġsou": 3380,
      "Ġdat": 3381,
      "37": 3382,
      "Ġaux": 3383,
      "Ġsite": 3384,
      "aring": 3385,
      "string": 3386,
      "ze": 3387,
      "åĳĬ": 3388,
      "(s": 3389,
      "è´¹": 3390,
      "uring": 3391,
      "ĠIm": 3392,
      "Ġtel": 3393,
      "Ġcomplet": 3394,
      "alu": 3395,
      "Ġcond": 3396,
      "Ġfri": 3397,
      "ç´ł": 3398,
      "ffer": 3399,
      "çĶ»": 3400,
      "xim": 3401,
      "Ġfull": 3402,
      "Ġvir": 3403,
      "ï¼ĮèĢĮ": 3404,
      "ĠPol": 3405,
      "å¢ŀ": 3406,
      "Ġwhy": 3407,
      "åŃĹ": 3408,
      "Ġsens": 3409,
      "Ġgrand": 3410,
      "Ġred": 3411,
      "æļ": 3412,
      "ç²¾": 3413,
      "å®ĥ": 3414,
      "38": 3415,
      "Ð¾Ð¼": 3416,
      "ç©¶": 3417,
      "ĠestÃ¡": 3418,
      "æĪ¿": 3419,
      "åĪĩ": 3420,
      "By": 3421,
      "Ġdevelopment": 3422,
      "ĠØ¹ÙĦÙī": 3423,
      "ready": 3424,
      "Ġ</": 3425,
      "ä¼ģä¸ļ": 3426,
      "jet": 3427,
      "Ġvar": 3428,
      "va": 3429,
      "æĪĺ": 3430,
      "Ġcalled": 3431,
      "Ġjob": 3432,
      "Ġit's": 3433,
      "ĠGod": 3434,
      "åĦ¿": 3435,
      "æķĪ": 3436,
      "ĠWhen": 3437,
      "Ġcolor": 3438,
      "æ¢": 3439,
      "è¾¾": 3440,
      "ĠAt": 3441,
      "oss": 3442,
      "'''": 3443,
      "ano": 3444,
      "Ġassoci": 3445,
      "æĲ": 3446,
      "Ġperiod": 3447,
      "Ø§Ø¡": 3448,
      "Ġtrab": 3449,
      "Ø±ÙĬ": 3450,
      "empl": 3451,
      "ï¼īĊ": 3452,
      "ader": 3453,
      "ires": 3454,
      "ä¾¿": 3455,
      "Ġens": 3456,
      "Ġcontent": 3457,
      "ĠEm": 3458,
      "ĠnÃ£o": 3459,
      "Ġcheck": 3460,
      "ãĥĥãĤ¯": 3461,
      "lection": 3462,
      "ĠØ³": 3463,
      "Ġleast": 3464,
      "èģĶ": 3465,
      "ãĢĢ": 3466,
      "Ġarr": 3467,
      "OS": 3468,
      "Ġthought": 3469,
      "æ·±": 3470,
      "ç·": 3471,
      "è±¡": 3472,
      "Ġcaus": 3473,
      "Ġten": 3474,
      "-p": 3475,
      "ÑĤÐµ": 3476,
      "åĳ¨": 3477,
      "Ġsize": 3478,
      "Ġ?": 3479,
      "respon": 3480,
      "êµ": 3481,
      "iÃ©n": 3482,
      "Ġpath": 3483,
      "Ġnat": 3484,
      "Ġcou": 3485,
      "Ġgeneral": 3486,
      "æİ¨": 3487,
      "mo": 3488,
      "Ġhaving": 3489,
      "Ġuntil": 3490,
      "uch": 3491,
      "ĠEuro": 3492,
      "Ġsoci": 3493,
      "ĉreturn": 3494,
      "ĠØ§ÙĦØ¹": 3495,
      "Ġphys": 3496,
      "Ġ)": 3497,
      "Ġpress": 3498,
      "èĬ±": 3499,
      "ctor": 3500,
      "Ġquestion": 3501,
      "ãĥĭ": 3502,
      "No": 3503,
      "yd": 3504,
      "Ġbig": 3505,
      "ift": 3506,
      "çĪ±": 3507,
      "ĠThat": 3508,
      "Ġdays": 3509,
      "Ġdou": 3510,
      "lement": 3511,
      "key": 3512,
      "ke": 3513,
      "ilar": 3514,
      "Ġcrit": 3515,
      "ema": 3516,
      "çİĩ": 3517,
      "ëĤ": 3518,
      "isa": 3519,
      "çĻº": 3520,
      "Ġonline": 3521,
      "ä½İ": 3522,
      "Ãł": 3523,
      "è½¬": 3524,
      "[[": 3525,
      "ids": 3526,
      "Ġmaking": 3527,
      "Ġfood": 3528,
      "Ġkind": 3529,
      "umer": 3530,
      "500": 3531,
      "Ġfar": 3532,
      "Ġmer": 3533,
      "Ġhom": 3534,
      "ï¼Įä¸Ģ": 3535,
      "\")Ċ": 3536,
      "ules": 3537,
      "Get": 3538,
      "Ġtimes": 3539,
      "ëıĦ": 3540,
      "aron": 3541,
      "Ġesta": 3542,
      "minist": 3543,
      "å¤ĩ": 3544,
      "iles": 3545,
      "cle": 3546,
      "Ġmo": 3547,
      "Ġpast": 3548,
      "ÑĤÐ°": 3549,
      "01": 3550,
      "Ġdire": 3551,
      "Ġer": 3552,
      "IG": 3553,
      "Ġworking": 3554,
      "Ġwon": 3555,
      "åĩĨ": 3556,
      "èĬĤ": 3557,
      "ãĤ»": 3558,
      "å¨": 3559,
      "Ġcreat": 3560,
      "icos": 3561,
      "gen": 3562,
      "ison": 3563,
      "æŃ¥": 3564,
      "bol": 3565,
      "Ġlik": 3566,
      "ĉif": 3567,
      "ĠIntern": 3568,
      "icas": 3569,
      "Ã§Ãµes": 3570,
      "ibility": 3571,
      "init": 3572,
      "\")": 3573,
      "75": 3574,
      "æł¹": 3575,
      "Ġfocus": 3576,
      ".j": 3577,
      "(t": 3578,
      "wer": 3579,
      "Ġpolit": 3580,
      "Ġinvol": 3581,
      "value": 3582,
      "ìĽ": 3583,
      "portun": 3584,
      "Sh": 3585,
      "way": 3586,
      "èĳ": 3587,
      "çļĦäºº": 3588,
      "Ġìķ": 3589,
      "Ġur": 3590,
      "uf": 3591,
      "ively": 3592,
      "åĬŁ": 3593,
      "Ġcommon": 3594,
      "ohn": 3595,
      "ãĢĤâĢĿ": 3596,
      "quest": 3597,
      "æĴ": 3598,
      "ĠString": 3599,
      "Ġposition": 3600,
      "Ġot": 3601,
      "bject": 3602,
      "Ã©c": 3603,
      "åĬŀ": 3604,
      "ìĸ": 3605,
      "Ġdescrib": 3606,
      "ãĥ¼ãĥĪ": 3607,
      "ĠCan": 3608,
      "çİĭ": 3609,
      "Ġsci": 3610,
      "Ġstring": 3611,
      "Ġcamp": 3612,
      "osp": 3613,
      "rror": 3614,
      "åĽłä¸º": 3615,
      "Ġside": 3616,
      "ead": 3617,
      "éļ¾": 3618,
      "ãģĵãģ®": 3619,
      "ised": 3620,
      "Ġnecess": 3621,
      "And": 3622,
      "Ã¡ri": 3623,
      "Ġlarg": 3624,
      "UR": 3625,
      "lished": 3626,
      "Ġclaim": 3627,
      "Ġabs": 3628,
      "().": 3629,
      "Ġê²": 3630,
      "æŁ¥": 3631,
      "ayer": 3632,
      "Ġaway": 3633,
      "Ġfalse": 3634,
      "Ġteach": 3635,
      "åĢ¼": 3636,
      "Ġrequest": 3637,
      "å®Ł": 3638,
      "imal": 3639,
      "Gr": 3640,
      "Ġobs": 3641,
      "ĠÐ½Ð°": 3642,
      "word": 3643,
      "åĮħ": 3644,
      "è¾ĥ": 3645,
      "ills": 3646,
      "Ġdepend": 3647,
      "æľĽ": 3648,
      "Ġalready": 3649,
      "Ġmajor": 3650,
      "ĠAg": 3651,
      "ÑģÐº": 3652,
      "Ġfour": 3653,
      "æ¨¡": 3654,
      "æĹ¶åĢĻ": 3655,
      "ĠWhat": 3656,
      "ĠGu": 3657,
      "éĺ²": 3658,
      "è§Ĩ": 3659,
      "pose": 3660,
      "ï¼Įä¹Ł": 3661,
      "Ġabove": 3662,
      "ogn": 3663,
      "ĠHowever": 3664,
      "Ġstyle": 3665,
      "ding": 3666,
      "icial": 3667,
      "ãģĵãģ¨ãģĮ": 3668,
      "éŁ³": 3669,
      ".M": 3670,
      "ãĢĲ": 3671,
      "Ġlove": 3672,
      "ãĥł": 3673,
      "ogle": 3674,
      "Ġthing": 3675,
      "Ð»Ð¸": 3676,
      "Ñİ": 3677,
      "ival": 3678,
      "ager": 3679,
      "pert": 3680,
      "ãĢĳ": 3681,
      "Ġreason": 3682,
      "ismo": 3683,
      "ãģĹãģ¾ãģĻ": 3684,
      "å·²ç»ı": 3685,
      "olution": 3686,
      "æĸŃ": 3687,
      "tes": 3688,
      "code": 3689,
      "ĠBr": 3690,
      "Ġdari": 3691,
      "è§Ĥ": 3692,
      "ĠÙĤ": 3693,
      "Ġey": 3694,
      "Ġdise": 3695,
      "Ġtell": 3696,
      "è¶Ĭ": 3697,
      "var": 3698,
      "etic": 3699,
      "Ġsays": 3700,
      "æ®µ": 3701,
      "mathb": 3702,
      "Ġexc": 3703,
      "Ð¾ÑĢ": 3704,
      "Ġauthor": 3705,
      "Ġexam": 3706,
      "ĠThese": 3707,
      "éĢŁ": 3708,
      "Ġhal": 3709,
      "Ġ''": 3710,
      "ĠQu": 3711,
      "Ã©l": 3712,
      "Ġcover": 3713,
      "Ġweek": 3714,
      "Ġcomput": 3715,
      "çİ°åľ¨": 3716,
      "åºĹ": 3717,
      "Im": 3718,
      "Ġrelations": 3719,
      "æĿĥ": 3720,
      "Ġbecome": 3721,
      "å¢ĥ": 3722,
      "fun": 3723,
      "Ġ[[": 3724,
      "ÃŃt": 3725,
      "Ġair": 3726,
      "ĠØ£ÙĨ": 3727,
      ":ĊĊ": 3728,
      "www": 3729,
      "è¶³": 3730,
      "book": 3731,
      "Ġnom": 3732,
      "ãĥĳ": 3733,
      "åĪĽ": 3734,
      "anto": 3735,
      "Ġ->": 3736,
      "ĠEs": 3737,
      "itar": 3738,
      "Ð¾Ð³": 3739,
      "48": 3740,
      "ades": 3741,
      "èı": 3742,
      "æĪ·": 3743,
      "Ġshort": 3744,
      "Ġdiscuss": 3745,
      "cho": 3746,
      "äº¬": 3747,
      "å¹¿": 3748,
      "clude": 3749,
      "Par": 3750,
      "å±Ģ": 3751,
      "éĸĭ": 3752,
      "ë§": 3753,
      "ï¼Įä»ĸ": 3754,
      "å¼ł": 3755,
      "ÙĦÙĬ": 3756,
      "å£«": 3757,
      "umber": 3758,
      "na": 3759,
      "ension": 3760,
      "ites": 3761,
      "Ġdone": 3762,
      "ãĥ¼ãĥ«": 3763,
      "Ġteam": 3764,
      "fect": 3765,
      "day": 3766,
      "ideo": 3767,
      "Ġdas": 3768,
      "à¦": 3769,
      "oute": 3770,
      "acional": 3771,
      "Ġgovernment": 3772,
      "Ġothers": 3773,
      "ä¸Ķ": 3774,
      "Ġà¤": 3775,
      "ĠìĿ´": 3776,
      "ises": 3777,
      "39": 3778,
      "ils": 3779,
      "Ġsignificant": 3780,
      "Ġcontr": 3781,
      "55": 3782,
      "ĠMin": 3783,
      "Ġwhether": 3784,
      "ĠÙĩ": 3785,
      "Ġamount": 3786,
      "åĪĿ": 3787,
      "ï¼Įä½ł": 3788,
      "Ø§Ø¹": 3789,
      "åıĭ": 3790,
      "Ġdue": 3791,
      "ending": 3792,
      "empt": 3793,
      "ç¶": 3794,
      "ĠChrist": 3795,
      "cing": 3796,
      "Ã©g": 3797,
      "ä»ĺ": 3798,
      "iÃ³": 3799,
      "Ġrange": 3800,
      "iff": 3801,
      ");": 3802,
      "Ġcontain": 3803,
      "Ġsoft": 3804,
      "orth": 3805,
      "II": 3806,
      "è¯Ĩ": 3807,
      "Ġmax": 3808,
      "uis": 3809,
      "Ġbien": 3810,
      "åĨ³": 3811,
      "ãģ¾ãģĽ": 3812,
      "196": 3813,
      "è¯ķ": 3814,
      "_{\\": 3815,
      "Ġfinan": 3816,
      "Ġcode": 3817,
      "æĺĵ": 3818,
      "Ġmoney": 3819,
      "äºĶ": 3820,
      "ikan": 3821,
      "ç¤¾ä¼ļ": 3822,
      "ĠÃº": 3823,
      "Ġrequired": 3824,
      "aster": 3825,
      "é¥": 3826,
      "_n": 3827,
      "Ġesc": 3828,
      "ä¾ĭ": 3829,
      "éĻ¤": 3830,
      "å¾Į": 3831,
      "Ġaddress": 3832,
      "Value": 3833,
      "çĲĥ": 3834,
      "Â·": 3835,
      "Or": 3836,
      "OM": 3837,
      "ä¹ł": 3838,
      "Ġworks": 3839,
      "Ġapproach": 3840,
      "iar": 3841,
      "å¸ĥ": 3842,
      "Test": 3843,
      "çĶ·": 3844,
      "ators": 3845,
      "Ġtoget": 3846,
      "Ġtogether": 3847,
      "éĺŁ": 3848,
      "Ġenvironment": 3849,
      "åĤ": 3850,
      "Ġmind": 3851,
      "_st": 3852,
      "ima": 3853,
      "Ġsym": 3854,
      "posed": 3855,
      "æľª": 3856,
      "Ġenergy": 3857,
      "å¤į": 3858,
      "ãĥ³ãĤ°": 3859,
      "Is": 3860,
      "ä»ĭ": 3861,
      "Ġmeet": 3862,
      "è¾¹": 3863,
      "åĪĻ": 3864,
      "Ġseveral": 3865,
      "Ð¶": 3866,
      "Ġenough": 3867,
      "Ġjug": 3868,
      "Ġbase": 3869,
      "atures": 3870,
      "çľģ": 3871,
      "Ġtarget": 3872,
      "Ġknown": 3873,
      "public": 3874,
      "rodu": 3875,
      "Ġimage": 3876,
      ".D": 3877,
      "ìľ¼": 3878,
      "ë¦¬": 3879,
      "anÃ§": 3880,
      "oph": 3881,
      "Ġcel": 3882,
      "ä¹ī": 3883,
      "ĠPer": 3884,
      "ä¿®": 3885,
      "ĠÙĨ": 3886,
      "Ġneeds": 3887,
      "hing": 3888,
      "Ġalong": 3889,
      "Ġpers": 3890,
      "çłĶç©¶": 3891,
      "05": 3892,
      "_id": 3893,
      "ãĤį": 3894,
      "But": 3895,
      "æ©": 3896,
      "çĮ": 3897,
      "Ġcharacter": 3898,
      "Ġhac": 3899,
      "Ġorg": 3900,
      "ãģļ": 3901,
      "atan": 3902,
      "ĠCo": 3903,
      "Ġses": 3904,
      "ãĥ¥": 3905,
      "Ġaction": 3906,
      "aff": 3907,
      "åĨµ": 3908,
      "Ġwomen": 3909,
      "Ġimpact": 3910,
      "æĿĲ": 3911,
      "ë©": 3912,
      "Ãºn": 3913,
      "ĠĠĠĠĠĠĠĠĠĠĠĠĠ": 3914,
      "anguage": 3915,
      "Ġtalk": 3916,
      "æĢİ": 3917,
      "outh": 3918,
      "undo": 3919,
      "Ġtu": 3920,
      "Ġconse": 3921,
      "Pl": 3922,
      "Ġassert": 3923,
      "åĳ³": 3924,
      "å¯¾": 3925,
      "ãĤĮãĤĭ": 3926,
      "Ð½Ð¾": 3927,
      "Ġesp": 3928,
      "acc": 3929,
      "iro": 3930,
      "EL": 3931,
      "utes": 3932,
      "fl": 3933,
      ".\"ĊĊ": 3934,
      "ãģ§ãĤĤ": 3935,
      "ìĿ¸": 3936,
      "Ġfail": 3937,
      "ince": 3938,
      "iene": 3939,
      "Ġìĭ": 3940,
      "çĶŁæ´»": 3941,
      "iers": 3942,
      "ãĥŁ": 3943,
      "æ¸¸": 3944,
      "ocal": 3945,
      "ĠDr": 3946,
      "iÃ¨re": 3947,
      "å¡": 3948,
      "äºĨä¸Ģ": 3949,
      "Ġsingle": 3950,
      "Ġpage": 3951,
      "é¢Ĩ": 3952,
      "Ġtax": 3953,
      "44": 3954,
      "Ġcommunity": 3955,
      "ãģ¨ãģĹãģ¦": 3956,
      "Ġrev": 3957,
      "Ġgame": 3958,
      "Ø§Ø¦": 3959,
      "><": 3960,
      "igure": 3961,
      "ĠSup": 3962,
      "Ġdocument": 3963,
      "ç¿": 3964,
      "Not": 3965,
      "ãģ¾ãģĽãĤĵ": 3966,
      "ĠIl": 3967,
      "aken": 3968,
      "ãĥĬ": 3969,
      "avor": 3970,
      "$\\": 3971,
      "ëł": 3972,
      "æĸ¹æ³ķ": 3973,
      "uration": 3974,
      "Ġweb": 3975,
      "UL": 3976,
      "Ġthough": 3977,
      "Bu": 3978,
      "ĠÐ¼": 3979,
      "utions": 3980,
      "åŃ©": 3981,
      "åĳ½": 3982,
      "/s": 3983,
      "eur": 3984,
      "Ġface": 3985,
      "çīĩ": 3986,
      "ÙĪØ±": 3987,
      "Ð»Ð°": 3988,
      "ackage": 3989,
      "Ġlater": 3990,
      "bar": 3991,
      "Ġspace": 3992,
      "ney": 3993,
      "Ġtool": 3994,
      "user": 3995,
      "è¿ĺæĺ¯": 3996,
      "Ġcountry": 3997,
      "Ġprem": 3998,
      "ips": 3999,
      "Ġvotre": 4000,
      "çŁ¥éģĵ": 4001,
      "ĠÙĦÙĦ": 4002,
      "ãĤĩ": 4003,
      "ãģŁãĤģ": 4004,
      "èī¯": 4005,
      "ï¼ŁĊ": 4006,
      "How": 4007,
      "ãĤ¹ãĥĪ": 4008,
      "Qu": 4009,
      "åį³": 4010,
      "Ġestab": 4011,
      "Ġcontact": 4012,
      "Ġcirc": 4013,
      "||": 4014,
      "å¸Ĥåľº": 4015,
      "ruction": 4016,
      "Ġfuture": 4017,
      "è¯Ń": 4018,
      "éľĢè¦ģ": 4019,
      "Ġacross": 4020,
      "api": 4021,
      "èĤ¡": 4022,
      "å¹²": 4023,
      "Des": 4024,
      "çİ¯": 4025,
      "Ġpatients": 4026,
      "Ġphot": 4027,
      "ĠRo": 4028,
      "Ġhor": 4029,
      "uth": 4030,
      ".h": 4031,
      "æ¹": 4032,
      "Ġspecial": 4033,
      "Ġintegr": 4034,
      "65": 4035,
      "Ġerror": 4036,
      "Øº": 4037,
      "orld": 4038,
      "OT": 4039,
      "ãĥķãĤ": 4040,
      "å©": 4041,
      "Ġsugg": 4042,
      "\");Ċ": 4043,
      "Ġrefer": 4044,
      "Ġdiv": 4045,
      "ĠCar": 4046,
      "ë³": 4047,
      "Ġeither": 4048,
      "All": 4049,
      "Ġì§": 4050,
      "lood": 4051,
      "Ġfurther": 4052,
      "ãĥ£": 4053,
      "ological": 4054,
      "-w": 4055,
      "Ġclos": 4056,
      "éĢģ": 4057,
      "Ġë§": 4058,
      "åįİ": 4059,
      "Ġtout": 4060,
      "Ġing": 4061,
      "Ġach": 4062,
      "arÃ¡": 4063,
      "ä¼ĺ": 4064,
      "ãĤº": 4065,
      "log": 4066,
      "ĠCal": 4067,
      "Ġdoing": 4068,
      "åĨĽ": 4069,
      "ĠAmerican": 4070,
      "amento": 4071,
      "Ġ!=": 4072,
      "div": 4073,
      "Ġstatic": 4074,
      "uit": 4075,
      "Ġactually": 4076,
      "Ġreview": 4077,
      "wards": 4078,
      "æŀĦ": 4079,
      "Ġwebs": 4080,
      "Ġhold": 4081,
      "âĢĻest": 4082,
      "ä¸ĸçķĮ": 4083,
      "Ãªn": 4084,
      "Error": 4085,
      "Ġmakes": 4086,
      "åŃ¦çĶŁ": 4087,
      "è¯·": 4088,
      "Exception": 4089,
      "cially": 4090,
      "Ġcam": 4091,
      "Ġprincip": 4092,
      "Ġsuggest": 4093,
      "ë¶": 4094,
      "))Ċ": 4095,
      "ï¼ļĊ": 4096,
      "ening": 4097,
      "ledge": 4098,
      "âĢĻve": 4099,
      "æĺ¾": 4100,
      "pha": 4101,
      "Ġconcern": 4102,
      "Ġrisk": 4103,
      "ising": 4104,
      "ication": 4105,
      "imate": 4106,
      "ãĥĿ": 4107,
      "Ġresponse": 4108,
      "Ġequip": 4109,
      "å¤±": 4110,
      "ĠMay": 4111,
      "æĸ¯": 4112,
      "CH": 4113,
      "Ġaud": 4114,
      "é¦ĸ": 4115,
      "igher": 4116,
      "æľįåĬ¡": 4117,
      "ĠReg": 4118,
      "Ġbit": 4119,
      "Ġstop": 4120,
      "itions": 4121,
      "èĲ½": 4122,
      "imum": 4123,
      "ÃŃn": 4124,
      "ĠìĹ": 4125,
      "));Ċ": 4126,
      "Key": 4127,
      "EM": 4128,
      "side": 4129,
      "ç«Ļ": 4130,
      "ĠUnited": 4131,
      "æ¤": 4132,
      "ental": 4133,
      "Ġvalues": 4134,
      "unch": 4135,
      "ìŀĲ": 4136,
      "now": 4137,
      "ĠCor": 4138,
      "Ġamong": 4139,
      "Ġsubject": 4140,
      "ĠAb": 4141,
      "Ġsource": 4142,
      "é©¬": 4143,
      "èĲ¥": 4144,
      "åį´": 4145,
      "Ġsimilar": 4146,
      "ping": 4147,
      "ãĥĵ": 4148,
      "ĠNot": 4149,
      "ãģ«ãĤĪ": 4150,
      "Ġbreak": 4151,
      "âĢĻm": 4152,
      "ights": 4153,
      "UT": 4154,
      "Ġapplication": 4155,
      "ĠSystem": 4156,
      "adores": 4157,
      "color": 4158,
      "oper": 4159,
      "Ġsimple": 4160,
      "Ġstrong": 4161,
      "Ġnous": 4162,
      "ley": 4163,
      "ĠWith": 4164,
      "atter": 4165,
      "Ġsec": 4166,
      "Ġonce": 4167,
      "ĠDo": 4168,
      "ÐµÑĢ": 4169,
      "There": 4170,
      "Ð½Ñĭ": 4171,
      "idas": 4172,
      "_S": 4173,
      "æµİ": 4174,
      "Ùĭ": 4175,
      "Ġanalysis": 4176,
      "|-Ċ": 4177,
      "Ġao": 4178,
      "Ġautom": 4179,
      "è®®": 4180,
      "pir": 4181,
      "Ġinvestig": 4182,
      "æĹ¥æľ¬": 4183,
      "åĨĻ": 4184,
      "Ġstrateg": 4185,
      "mes": 4186,
      "asing": 4187,
      "Ġya": 4188,
      "IM": 4189,
      "Ġpred": 4190,
      "oll": 4191,
      "æŀĹ": 4192,
      "nes": 4193,
      "Ġobserv": 4194,
      "Ð²Ð°": 4195,
      "^{\\": 4196,
      "most": 4197,
      "ĠEurope": 4198,
      "ãģķãģĦ": 4199,
      "Ġviol": 4200,
      "æĿĳ": 4201,
      "iction": 4202,
      "ounds": 4203,
      "çħ§": 4204,
      "oms": 4205,
      "åĨľ": 4206,
      "Ð»ÑĮ": 4207,
      "ilt": 4208,
      "rug": 4209,
      "lam": 4210,
      "ãģĤãĤĬ": 4211,
      "æīĢä»¥": 4212,
      "ula": 4213,
      "Ġdiffic": 4214,
      "Ġren": 4215,
      "////": 4216,
      "Ġparam": 4217,
      "78": 4218,
      "ENT": 4219,
      "ç¦»": 4220,
      "agr": 4221,
      "data": 4222,
      "Ġnue": 4223,
      "ç¬ĳ": 4224,
      "ĠAss": 4225,
      "Ġpercent": 4226,
      "ĠI'm": 4227,
      "íĸ": 4228,
      "Ġhouse": 4229,
      "Ġetc": 4230,
      "æĢģ": 4231,
      "èĭ±": 4232,
      "ummary": 4233,
      "åĬ©": 4234,
      "idak": 4235,
      "Ġbegin": 4236,
      "CT": 4237,
      "IL": 4238,
      "ditions": 4239,
      "IP": 4240,
      "-h": 4241,
      "ìĭľ": 4242,
      "åĲ§": 4243,
      "Ġcoll": 4244,
      "æĬĢæľ¯": 4245,
      "isation": 4246,
      "Ġvia": 4247,
      "é¾": 4248,
      "ried": 4249,
      "ï¼ĳ": 4250,
      "(m": 4251,
      "uments": 4252,
      "Add": 4253,
      "è¶ħ": 4254,
      "Ġ*Ċ": 4255,
      "Ġrealiz": 4256,
      "Ġmembers": 4257,
      "åĲĹ": 4258,
      "åł±": 4259,
      "Ġrate": 4260,
      "95": 4261,
      "ecut": 4262,
      "Ġever": 4263,
      "Ġimplement": 4264,
      "atory": 4265,
      "Ġdalam": 4266,
      "æŃ»": 4267,
      "View": 4268,
      "éªĮ": 4269,
      "ering": 4270,
      "Ġdesde": 4271,
      "Ġsearch": 4272,
      "sy": 4273,
      "ĠPart": 4274,
      "ĠJohn": 4275,
      "With": 4276,
      "ession": 4277,
      "--------------------------------": 4278,
      "Ġvisit": 4279,
      "iente": 4280,
      "åĲ¬": 4281,
      "ç±³": 4282,
      "Ġreach": 4283,
      "ĠVal": 4284,
      "ĠSte": 4285,
      "Ġill": 4286,
      "ä¹Ĳ": 4287,
      "ÐµÑĤ": 4288,
      "Ġcompan": 4289,
      "è¿ŀ": 4290,
      "æķĻèĤ²": 4291,
      "Ġir": 4292,
      "ìĥ": 4293,
      "ened": 4294,
      "istic": 4295,
      "ë°": 4296,
      "-in": 4297,
      "Ġpan": 4298,
      "Ġprote": 4299,
      "ategory": 4300,
      "300": 4301,
      "atal": 4302,
      "ĠìĦ": 4303,
      "Ġrais": 4304,
      "$,": 4305,
      "ache": 4306,
      "Ġmedia": 4307,
      "ãģ¦ãģĦãĤĭ": 4308,
      "ĠMe": 4309,
      "ĠDep": 4310,
      "anya": 4311,
      "éĸ¢": 4312,
      "å·ŀ": 4313,
      "ĠØ¬": 4314,
      "ĠĠĊ": 4315,
      "though": 4316,
      "æĹ©": 4317,
      "Ġtreatment": 4318,
      "Ġcompon": 4319,
      "ivity": 4320,
      "sc": 4321,
      "çĥŃ": 4322,
      "Ġrelationship": 4323,
      "AG": 4324,
      "Ġimm": 4325,
      "Ġpet": 4326,
      "Ġcompet": 4327,
      "äººçļĦ": 4328,
      "itted": 4329,
      "Ġfa": 4330,
      "éŃ": 4331,
      "Ġdim": 4332,
      "éĢļè¿ĩ": 4333,
      "ored": 4334,
      "ribute": 4335,
      "éļı": 4336,
      "UN": 4337,
      "Ġpero": 4338,
      "ìĤ¬": 4339,
      "Ġloss": 4340,
      ".n": 4341,
      "ĠtambiÃ©n": 4342,
      "Ġchall": 4343,
      "Ġquestions": 4344,
      "aya": 4345,
      "(f": 4346,
      "Ġbi": 4347,
      "ãĤ·ãĥ§": 4348,
      "oups": 4349,
      "urch": 4350,
      "Ġsystems": 4351,
      "ÙĬØ¯": 4352,
      "asta": 4353,
      "Em": 4354,
      "Ġhistory": 4355,
      "Ġstory": 4356,
      "Ø§Ùģ": 4357,
      "alt": 4358,
      "ba": 4359,
      "çģ«": 4360,
      "kt": 4361,
      "angan": 4362,
      "span": 4363,
      "Ġearly": 4364,
      "Ġtodo": 4365,
      "Ġissues": 4366,
      "66": 4367,
      "ĊĊĊ": 4368,
      "eters": 4369,
      "Ġproducts": 4370,
      "ãģĹãģĦ": 4371,
      "Ġhigher": 4372,
      "raft": 4373,
      "Ph": 4374,
      "04": 4375,
      "éĻħ": 4376,
      "ran": 4377,
      "å§Ķ": 4378,
      "ĠÐ·": 4379,
      "Ġtoday": 4380,
      "Ġvarious": 4381,
      "hib": 4382,
      "Ġopportun": 4383,
      "Ġprovided": 4384,
      "ãĢĤâĢĿĊ": 4385,
      "inary": 4386,
      "ĠMy": 4387,
      "Ġpain": 4388,
      "Ġnatural": 4389,
      "ukan": 4390,
      "ĠAct": 4391,
      "08": 4392,
      "pri": 4393,
      "uan": 4394,
      "Ġprint": 4395,
      "formation": 4396,
      "ç»Ń": 4397,
      "Ġtrabaj": 4398,
      "Ġchanges": 4399,
      "è®¸": 4400,
      "ãĤĤãģ®": 4401,
      "Ġlooking": 4402,
      "Ġsyn": 4403,
      "ĠaÃ±os": 4404,
      "ï¼Įæľī": 4405,
      "=\\": 4406,
      "çı¾": 4407,
      "æİ§": 4408,
      "Ġcy": 4409,
      "åįĬ": 4410,
      "Ġconfig": 4411,
      "oria": 4412,
      "ensive": 4413,
      "Ġinput": 4414,
      "cil": 4415,
      "ques": 4416,
      "æ§ĺ": 4417,
      "ibil": 4418,
      "çļĦä¸Ģ": 4419,
      "AB": 4420,
      "iki": 4421,
      "Ġparte": 4422,
      "Ġversion": 4423,
      "çŃĶ": 4424,
      "Ġmanagement": 4425,
      "oken": 4426,
      "ption": 4427,
      "Ġdep": 4428,
      "ĠStates": 4429,
      "æŀģ": 4430,
      "ilder": 4431,
      "ĠØ§ÙĦØ³": 4432,
      "Ġdemand": 4433,
      "Ġidea": 4434,
      "Ġrecomm": 4435,
      "æ»¡": 4436,
      "ĠSc": 4437,
      "Ġconditions": 4438,
      "ĠBo": 4439,
      "çŃĸ": 4440,
      "rel": 4441,
      "pa": 4442,
      "Ġsomeone": 4443,
      "æ¼Ķ": 4444,
      "ãĤĩãģĨ": 4445,
      "Ġ:=": 4446,
      "Ġcred": 4447,
      "Ġnuest": 4448,
      "Ġquality": 4449,
      "ï¼Įå°±": 4450,
      "Ġsum": 4451,
      "åĲĥ": 4452,
      "ĠÐ³": 4453,
      "error": 4454,
      "åŁŁ": 4455,
      "åĸľ": 4456,
      "åľŁ": 4457,
      "Ġseen": 4458,
      "box": 4459,
      "ãĥ¼ãĥī": 4460,
      "æĵ": 4461,
      "ially": 4462,
      "ÃŃas": 4463,
      "off": 4464,
      "åĪ°äºĨ": 4465,
      "ĠDis": 4466,
      "type": 4467,
      "DE": 4468,
      "Ġage": 4469,
      "ĠOne": 4470,
      "æ±Ł": 4471,
      "blic": 4472,
      "using": 4473,
      "å¾·": 4474,
      "âĸ": 4475,
      "ãģªãģı": 4476,
      "Ġdisplay": 4477,
      "{~": 4478,
      "['": 4479,
      "ĠdÃ©c": 4480,
      "Ġgetting": 4481,
      "pring": 4482,
      "OL": 4483,
      "Ġobtain": 4484,
      "Ġprior": 4485,
      "ìľ¼ë¡ľ": 4486,
      "pec": 4487,
      "è¨ĺ": 4488,
      "çŁ³": 4489,
      "ez": 4490,
      "çīĪ": 4491,
      "include": 4492,
      "åĵį": 4493,
      "æĢİä¹Ī": 4494,
      "Ġexperien": 4495,
      "Ġ**": 4496,
      "Ġnetwork": 4497,
      "åĽ¢": 4498,
      "oman": 4499,
      "test": 4500,
      "ĠPres": 4501,
      "where": 4502,
      "Ġont": 4503,
      "Ġmal": 4504,
      "ING": 4505,
      "Pr": 4506,
      "Ġperformance": 4507,
      "Ġnormal": 4508,
      "Ġdate": 4509,
      "position": 4510,
      "Ġê³": 4511,
      "è¿Ļæł·": 4512,
      "Ġdifficult": 4513,
      "roid": 4514,
      "rive": 4515,
      "Ġfall": 4516,
      "Ġbelow": 4517,
      "Time": 4518,
      "At": 4519,
      "}(": 4520,
      "ãģĤãĤĬãģ¾ãģĻ": 4521,
      "æ©Ł": 4522,
      "ĠGener": 4523,
      "çĻ¾": 4524,
      "ãģķãĤĵ": 4525,
      "State": 4526,
      "Ġreci": 4527,
      "Ġtrav": 4528,
      "FF": 4529,
      "De": 4530,
      "ĠBar": 4531,
      "Ġtable": 4532,
      "apat": 4533,
      "Ġplant": 4534,
      "Ġflow": 4535,
      "ç»ıæµİ": 4536,
      "':": 4537,
      "Ġtraining": 4538,
      "print": 4539,
      "gl": 4540,
      "Ġincrease": 4541,
      "Ġcompr": 4542,
      "åĪĹ": 4543,
      "\\\\Ċ": 4544,
      "Ġpotential": 4545,
      "_C": 4546,
      "Ġsex": 4547,
      "$$": 4548,
      "Ġfund": 4549,
      "èĩ´": 4550,
      "fort": 4551,
      "Ġwar": 4552,
      "pen": 4553,
      "Ġaddition": 4554,
      "Ġdefault": 4555,
      "resh": 4556,
      "ç§°": 4557,
      "Ã¡t": 4558,
      "Ġregard": 4559,
      "æıĲä¾Ľ": 4560,
      "å±ŀ": 4561,
      "Ġbuy": 4562,
      "...Ċ": 4563,
      "lege": 4564,
      "Ġcause": 4565,
      "Ġprevious": 4566,
      "Ġmass": 4567,
      "Ġcette": 4568,
      "medi": 4569,
      "è¡Ģ": 4570,
      "mit": 4571,
      "ï¼Įå¹¶": 4572,
      "èĩªå·±çļĦ": 4573,
      "åł´åĲĪ": 4574,
      "ÙĪÙħ": 4575,
      "ona": 4576,
      "Ġlearning": 4577,
      "Ġsort": 4578,
      "Ġwhole": 4579,
      "Ġshall": 4580,
      "Ġlower": 4581,
      "rup": 4582,
      "æ¸©": 4583,
      "è´£": 4584,
      "Ġheart": 4585,
      "Object": 4586,
      "Ġupon": 4587,
      "ouch": 4588,
      "ĠComp": 4589,
      "ubs": 4590,
      "åĩºæĿ¥": 4591,
      "Ġorganiz": 4592,
      "ï¼ĮéĤ£": 4593,
      "Ġrole": 4594,
      "ãĥį": 4595,
      "ĠFl": 4596,
      "å°Ķ": 4597,
      "cio": 4598,
      "Ġaccording": 4599,
      "éĩįè¦ģ": 4600,
      "']": 4601,
      "ãģ§ãģįãĤĭ": 4602,
      "aging": 4603,
      "odes": 4604,
      "pace": 4605,
      "Ġoriginal": 4606,
      "Ġwords": 4607,
      "ï¼Įæĺ¯": 4608,
      "Ġcame": 4609,
      "åĪ©çĶ¨": 4610,
      "idd": 4611,
      "ëĿ": 4612,
      "/m": 4613,
      "Ġmatch": 4614,
      "éĥ½æĺ¯": 4615,
      "uff": 4616,
      "Ġmi": 4617,
      "ãĤ±": 4618,
      "Ġclear": 4619,
      "cd": 4620,
      "Ġni": 4621,
      "å®¤": 4622,
      "ç³»ç»Ł": 4623,
      "umb": 4624,
      "When": 4625,
      "Service": 4626,
      "èģĮ": 4627,
      "ĠÐ±": 4628,
      "elt": 4629,
      "imiento": 4630,
      "head": 4631,
      "Ġmonths": 4632,
      "ony": 4633,
      "æĥħåĨµ": 4634,
      "ribution": 4635,
      "ãģĹãĤĩãģĨ": 4636,
      "Ġterms": 4637,
      "ÑĤÐ¸": 4638,
      "æİĴ": 4639,
      "verage": 4640,
      "å¾Ģ": 4641,
      "Ġlive": 4642,
      "Equ": 4643,
      "Ġcases": 4644,
      "curity": 4645,
      "åºľ": 4646,
      "================": 4647,
      "ä¿¡æģ¯": 4648,
      "ÑĦ": 4649,
      "So": 4650,
      "Ġitu": 4651,
      "Ġconsum": 4652,
      "Ġlink": 4653,
      "Ġlikely": 4654,
      "ponse": 4655,
      "çĨ": 4656,
      "åħĭ": 4657,
      "Ġland": 4658,
      "vis": 4659,
      "Ġjud": 4660,
      "(self": 4661,
      "ality": 4662,
      "Ġactual": 4663,
      "Ġcut": 4664,
      "Ġtidak": 4665,
      "æĬ¤": 4666,
      "Se": 4667,
      ".A": 4668,
      "£¼": 4669,
      "íĻ": 4670,
      "Ġconv": 4671,
      "cha": 4672,
      "Ġscre": 4673,
      "Ġfue": 4674,
      "Ġyet": 4675,
      "Ġcontext": 4676,
      "perty": 4677,
      "ìĬ¤": 4678,
      "æĺŁ": 4679,
      "47": 4680,
      "éĩĩ": 4681,
      "ãģ«ãģ¤": 4682,
      "abase": 4683,
      "195": 4684,
      "Ġdecl": 4685,
      "ãģ¾ãģ§": 4686,
      "oir": 4687,
      "ĠpaÃŃs": 4688,
      "49": 4689,
      "ournal": 4690,
      "Ġmember": 4691,
      "ãĥ³ãĥĪ": 4692,
      "æī¾": 4693,
      "aria": 4694,
      "ê³¼": 4695,
      "Ġinstall": 4696,
      "ĠPa": 4697,
      "éĿĴ": 4698,
      "Request": 4699,
      "ĠSec": 4700,
      "ç¯": 4701,
      "Ð°Ð½": 4702,
      "ë¬": 4703,
      "(x": 4704,
      "Ġdeg": 4705,
      "ãģłãģĳ": 4706,
      "from": 4707,
      "alah": 4708,
      "ĠIN": 4709,
      "ãģŃ": 4710,
      "Ġamb": 4711,
      "Ġsav": 4712,
      "âĢĻll": 4713,
      "ĠGe": 4714,
      "å·®": 4715,
      "Ġcontinu": 4716,
      "Ãºblic": 4717,
      "-\\": 4718,
      "ãģ¹": 4719,
      "åĽ½å®¶": 4720,
      "ä¼Ĺ": 4721,
      "éķ·": 4722,
      "ederal": 4723,
      "äº§åĵģ": 4724,
      "arios": 4725,
      "Ġsepar": 4726,
      "åħ»": 4727,
      "Ġtodos": 4728,
      "Ġquick": 4729,
      "Ġpie": 4730,
      "Ġproperty": 4731,
      "Ġhowever": 4732,
      "Ġblock": 4733,
      "Ġmis": 4734,
      "Ġmillion": 4735,
      "http": 4736,
      "68": 4737,
      "selves": 4738,
      "Ġindustry": 4739,
      "plied": 4740,
      "itation": 4741,
      "Ġcollect": 4742,
      "Ġempres": 4743,
      "Ġtemper": 4744,
      "å¾ħ": 4745,
      "Ġglobal": 4746,
      "urg": 4747,
      "è¯Ħ": 4748,
      "09": 4749,
      "ìĸ´": 4750,
      "èĪ¬": 4751,
      "åĬ¿": 4752,
      "rix": 4753,
      "aling": 4754,
      "Ġhan": 4755,
      "ota": 4756,
      "cret": 4757,
      "-st": 4758,
      "mm": 4759,
      "Ġanything": 4760,
      ".b": 4761,
      "ags": 4762,
      "Ġaccept": 4763,
      "194": 4764,
      "ained": 4765,
      "Ġissue": 4766,
      "Ġwebsite": 4767,
      "Ġbad": 4768,
      "pat": 4769,
      "());Ċ": 4770,
      "ëĭĪëĭ¤": 4771,
      "uly": 4772,
      "åı¤": 4773,
      "ĠState": 4774,
      "å¤§åŃ¦": 4775,
      "Ġflo": 4776,
      "ÐµÐ½Ð¸": 4777,
      "Ġseb": 4778,
      "ĠìĪĺ": 4779,
      "Ġtook": 4780,
      "Ġcity": 4781,
      "Ġrap": 4782,
      "åİĨ": 4783,
      "Ġdam": 4784,
      "Ġtechnology": 4785,
      "ali": 4786,
      "Ġtre": 4787,
      "Ġmach": 4788,
      "ership": 4789,
      "Ġpoints": 4790,
      "æĭī": 4791,
      "ĠYork": 4792,
      "iva": 4793,
      "Ġcomplex": 4794,
      "Ġnature": 4795,
      "Ġakan": 4796,
      "ä¾Ŀ": 4797,
      "ÙħØ§": 4798,
      "Ġclient": 4799,
      "çļĦæĺ¯": 4800,
      "Ġproblems": 4801,
      "åĨħå®¹": 4802,
      "Ġtypes": 4803,
      "chan": 4804,
      "å®³": 4805,
      "07": 4806,
      "ala": 4807,
      "PS": 4808,
      "ç¬¬ä¸Ģ": 4809,
      "agement": 4810,
      "çº¢": 4811,
      "($": 4812,
      "iple": 4813,
      "uy": 4814,
      "åĺ": 4815,
      "Ġprovides": 4816,
      "Ġbehav": 4817,
      "illed": 4818,
      "æµĭ": 4819,
      "Ġextra": 4820,
      "ĠMon": 4821,
      "ãģıãģł": 4822,
      ".org": 4823,
      "just": 4824,
      "Ġcompanies": 4825,
      "ĠSer": 4826,
      "ync": 4827,
      "Ġcourt": 4828,
      "å¼Ģå§ĭ": 4829,
      "ste": 4830,
      "Ġ...": 4831,
      "Ġcomes": 4832,
      "Ġdevice": 4833,
      "Ġachie": 4834,
      "Ġrather": 4835,
      "ëĿ¼": 4836,
      "Ġge": 4837,
      "Ġmessage": 4838,
      "Ġvideo": 4839,
      "rows": 4840,
      "ĠNational": 4841,
      "ĠØ¯": 4842,
      "fil": 4843,
      "à®": 4844,
      "aged": 4845,
      "åŃ©åŃĲ": 4846,
      "Ġseem": 4847,
      "ãģ¨æĢĿ": 4848,
      "ĠStud": 4849,
      "enta": 4850,
      "ç»Ĩ": 4851,
      "æ¬¢": 4852,
      "Ġcannot": 4853,
      "Ġrep": 4854,
      "rc": 4855,
      "ports": 4856,
      "Ġti": 4857,
      "apter": 4858,
      "æ¬¾": 4859,
      "å¾®": 4860,
      "_name": 4861,
      "Ð¾Ð¹": 4862,
      "ĠÑĥ": 4863,
      "ria": 4864,
      "Ġnational": 4865,
      "ä¸ŃçļĦ": 4866,
      "atform": 4867,
      "_T": 4868,
      "SE": 4869,
      "CC": 4870,
      "Ġelement": 4871,
      "Ġneeded": 4872,
      "02": 4873,
      "Ġeasy": 4874,
      "ĠÃ¡": 4875,
      "Ġarticle": 4876,
      ".set": 4877,
      "è¨Ń": 4878,
      "****************": 4879,
      "åķĬ": 4880,
      "ĠCO": 4881,
      "Ġstarted": 4882,
      "{center": 4883,
      ").ĊĊ": 4884,
      "éĥ¨åĪĨ": 4885,
      "Ġcells": 4886,
      "User": 4887,
      "è½»": 4888,
      "Ġinflu": 4889,
      "ause": 4890,
      "å¤Ł": 4891,
      "ouve": 4892,
      "Ġshown": 4893,
      "ĠBy": 4894,
      "åºķ": 4895,
      "ceed": 4896,
      "plication": 4897,
      "mod": 4898,
      "Ġpaper": 4899,
      "Ø¸": 4900,
      "Ø§ÙĤ": 4901,
      ".\"Ċ": 4902,
      "-r": 4903,
      ".R": 4904,
      "_b": 4905,
      "array": 4906,
      "duc": 4907,
      "Ġbal": 4908,
      "lin": 4909,
      "eck": 4910,
      "Ġ&&": 4911,
      "alpha": 4912,
      "Man": 4913,
      "aires": 4914,
      "_P": 4915,
      "è¿ľ": 4916,
      "âĢ¦âĢ¦": 4917,
      "Set": 4918,
      "Ġareas": 4919,
      "lig": 4920,
      "Ġbelieve": 4921,
      "à¥į": 4922,
      "åĳ¢": 4923,
      "Ġhours": 4924,
      "\"ĊĊ": 4925,
      "Ġtend": 4926,
      "Ġknowledge": 4927,
      "Ġinstit": 4928,
      "amiento": 4929,
      "ç§¯": 4930,
      "Ġcalcul": 4931,
      "Ġcapac": 4932,
      "06": 4933,
      "omb": 4934,
      "Ġsil": 4935,
      "urance": 4936,
      "ouv": 4937,
      "Ġshare": 4938,
      "Ġproduction": 4939,
      "çĽĬ": 4940,
      "Ġanswer": 4941,
      "Ġroom": 4942,
      "Ġentire": 4943,
      "ãĥ¼ãĤ¹": 4944,
      "ãĥ¢": 4945,
      "éĴ±": 4946,
      "ĠØ§ÙĦØŃ": 4947,
      "ä¸»è¦ģ": 4948,
      "Ġtw": 4949,
      "Ġintrodu": 4950,
      "ãģĪãĤĭ": 4951,
      "aced": 4952,
      "with": 4953,
      "è·Ł": 4954,
      "Ġdeath": 4955,
      "elling": 4956,
      "å®īåħ¨": 4957,
      "Ġoptions": 4958,
      "cies": 4959,
      "46": 4960,
      "Ġsolution": 4961,
      "place": 4962,
      "Ġvez": 4963,
      "æĻ¯": 4964,
      "æķħ": 4965,
      "Ġmej": 4966,
      ".F": 4967,
      "NA": 4968,
      "\".": 4969,
      "met": 4970,
      "Ġfavor": 4971,
      "Ġmatter": 4972,
      "ìŀ¥": 4973,
      "anch": 4974,
      "anks": 4975,
      "je": 4976,
      "-S": 4977,
      "Ġfilm": 4978,
      "Ġways": 4979,
      "Ġtaken": 4980,
      "ãĥĥãĥĹ": 4981,
      "ï¼İ": 4982,
      "Ġeffic": 4983,
      "åĪĴ": 4984,
      "stance": 4985,
      "Ġtaking": 4986,
      "ĠÃª": 4987,
      "åģ¥": 4988,
      "Ġprofessional": 4989,
      "index": 4990,
      "Ġ;": 4991,
      "Ġminutes": 4992,
      "Ġma": 4993,
      "AA": 4994,
      "äº²": 4995,
      "æŀĲ": 4996,
      "ocr": 4997,
      "Ġadminist": 4998,
      "Ġjuga": 4999,
      "å¿µ": 5000,
      "HE": 5001,
      "Ġsoftware": 5002,
      "ç¾¤": 5003,
      "gu": 5004,
      "æŃ¢": 5005,
      "Ġanim": 5006,
      "ĠĠĠĠĠĠĠĠĠĠĠĠ": 5007,
      "æĿİ": 5008,
      "indows": 5009,
      "äºĪ": 5010,
      "irl": 5011,
      "ç»´": 5012,
      "adem": 5013,
      "ĠHis": 5014,
      "aks": 5015,
      "istance": 5016,
      "ĠEd": 5017,
      "Ġpada": 5018,
      "à°": 5019,
      "ãģıãģłãģķãģĦ": 5020,
      "Ġsection": 5021,
      "ãĥ¼ãĤ¸": 5022,
      "pi": 5023,
      "Ġeffort": 5024,
      "Ġmob": 5025,
      "Ġfem": 5026,
      "trans": 5027,
      "ĠÃ©tÃ©": 5028,
      "Ġevidence": 5029,
      "ÐºÐ°": 5030,
      "æ¿": 5031,
      "Ġcorrect": 5032,
      "Ġbuilding": 5033,
      "Ġyoung": 5034,
      "åķı": 5035,
      "åıĮ": 5036,
      "åħļ": 5037,
      "Ġrelated": 5038,
      "Ġeducation": 5039,
      "ãĥĢ": 5040,
      "88": 5041,
      "æĮī": 5042,
      "çº¦": 5043,
      "amed": 5044,
      "éĶĢ": 5045,
      "Ġcorrespon": 5046,
      "Ġgrowth": 5047,
      "Ġconduct": 5048,
      "å±Ĥ": 5049,
      "Ġevalu": 5050,
      "ãģĹãģ¦ãģĦãĤĭ": 5051,
      "ä»½": 5052,
      "ynam": 5053,
      "Ġalmost": 5054,
      "ãĤ¿ãĥ¼": 5055,
      "æĽ¸": 5056,
      "itory": 5057,
      "andom": 5058,
      "äºī": 5059,
      "åı²": 5060,
      "ttp": 5061,
      "Ġbill": 5062,
      "Ġoutput": 5063,
      "$.": 5064,
      "IV": 5065,
      "ä¹°": 5066,
      "Ġprevent": 5067,
      "Config": 5068,
      "ĠCons": 5069,
      "arth": 5070,
      "ĠSci": 5071,
      "pm": 5072,
      "Ġespecially": 5073,
      "åįĩ": 5074,
      "ĠSome": 5075,
      "++": 5076,
      "è«": 5077,
      "ì²": 5078,
      "Ġpret": 5079,
      "Ġmove": 5080,
      "{C": 5081,
      "ï¼Ĳ": 5082,
      "ä»¥ä¸Ĭ": 5083,
      "ç§ģ": 5084,
      "âĢĿ.Ċ": 5085,
      "SS": 5086,
      "omet": 5087,
      "rite": 5088,
      "istas": 5089,
      "ĠMore": 5090,
      "ãĤĮãģ°": 5091,
      "Context": 5092,
      "rica": 5093,
      "Ġcreated": 5094,
      "ìĽĲ": 5095,
      "ãĥĻ": 5096,
      "una": 5097,
      "icles": 5098,
      "Ġdir": 5099,
      "(),": 5100,
      "ibr": 5101,
      "Ġëĭ": 5102,
      "Ġtold": 5103,
      "ĠLes": 5104,
      "ãģ¸": 5105,
      "cher": 5106,
      "æĻ®": 5107,
      "Ġhar": 5108,
      "ãĥ¼ãĥł": 5109,
      "Ġmenj": 5110,
      "cel": 5111,
      "amm": 5112,
      "ospital": 5113,
      "Ġfinancial": 5114,
      "embre": 5115,
      "Ġlevels": 5116,
      "è§Ĵ": 5117,
      "nov": 5118,
      "ĠGl": 5119,
      "Ġcenter": 5120,
      ".P": 5121,
      "uz": 5122,
      "Ġprec": 5123,
      "Ġcompos": 5124,
      "çķĻ": 5125,
      ".T": 5126,
      "éĢĤ": 5127,
      "ðŁ": 5128,
      "Ġlanguage": 5129,
      "42": 5130,
      "ika": 5131,
      "amework": 5132,
      "ĠArt": 5133,
      "Ġ},Ċ": 5134,
      "ished": 5135,
      "åİĭ": 5136,
      "Ġfix": 5137,
      "ĠìŀĪ": 5138,
      "ìłķ": 5139,
      "comp": 5140,
      "Ġrecogn": 5141,
      "Ġ/**Ċ": 5142,
      "iam": 5143,
      "Ġbring": 5144,
      "-M": 5145,
      "Ġcomme": 5146,
      "Ġ\"\"": 5147,
      "åĨĨ": 5148,
      "æ£Ģ": 5149,
      "anced": 5150,
      "td": 5151,
      "(n": 5152,
      "èµĽ": 5153,
      "ç¦ı": 5154,
      "Ġgra": 5155,
      "Ġnear": 5156,
      "illa": 5157,
      "anger": 5158,
      "âĢĿï¼Į": 5159,
      "ãģĹãģ¾": 5160,
      "Ġìĺ": 5161,
      "é¢Ħ": 5162,
      "400": 5163,
      "Ġproced": 5164,
      "Ġclose": 5165,
      "å¿ħè¦ģ": 5166,
      "mp": 5167,
      "elta": 5168,
      "Ġfrequ": 5169,
      "ken": 5170,
      "å»ºè®¾": 5171,
      "aba": 5172,
      "çļĦæĹ¶åĢĻ": 5173,
      "Ġstructure": 5174,
      "rown": 5175,
      "âĢĻun": 5176,
      "Ġpolicy": 5177,
      "_in": 5178,
      "Ġweight": 5179,
      "Ġpes": 5180,
      "èĮĥ": 5181,
      "à¥įà¤": 5182,
      "idente": 5183,
      "Ġ\\%": 5184,
      "æĸ¹éĿ¢": 5185,
      "roller": 5186,
      "Ġcard": 5187,
      "ãģ³": 5188,
      "ges": 5189,
      "Ġpuede": 5190,
      "Ġwatch": 5191,
      "ãĤ§": 5192,
      "ĠØ±": 5193,
      "Ġwent": 5194,
      "ief": 5195,
      ".st": 5196,
      "Ġstandard": 5197,
      "ĠGet": 5198,
      "Ġconsist": 5199,
      "izing": 5200,
      "Ġseries": 5201,
      "åħħ": 5202,
      "æī¿": 5203,
      "Ġgroups": 5204,
      "å®Ŀ": 5205,
      "ĠTrans": 5206,
      "ĠØ®": 5207,
      "ride": 5208,
      "Ð¾Ð½": 5209,
      "ĠNe": 5210,
      "gal": 5211,
      "(c": 5212,
      "03": 5213,
      "Ø³Øª": 5214,
      "iting": 5215,
      "Ġvalid": 5216,
      ".L": 5217,
      "orks": 5218,
      "Ġcada": 5219,
      "Ġtrying": 5220,
      "Ø§ØŃ": 5221,
      "çĦ¡": 5222,
      "ãģ¾ãģŁ": 5223,
      "Ġ:Ċ": 5224,
      "ãģĿãĤĮ": 5225,
      "Ġhalf": 5226,
      "æĿ¿": 5227,
      "ĠInt": 5228,
      "ading": 5229,
      "ĠØ¨Ø§ÙĦ": 5230,
      "Ġfive": 5231,
      "ä»ħ": 5232,
      "æ²¹": 5233,
      "apan": 5234,
      "ãĥ¯": 5235,
      "Ġarch": 5236,
      "Ġdesp": 5237,
      "orage": 5238,
      "ìĺ": 5239,
      "ç»Ī": 5240,
      "ini": 5241,
      "ulations": 5242,
      "Ġeverything": 5243,
      "Ġfront": 5244,
      "ĠAut": 5245,
      "çªģ": 5246,
      "å¤§çļĦ": 5247,
      "ï¼Įä»¥": 5248,
      "Ġengine": 5249,
      "èİ·": 5250,
      "å¤ī": 5251,
      "='": 5252,
      "Ġforma": 5253,
      "Ġapply": 5254,
      "ĠDec": 5255,
      "asa": 5256,
      "arse": 5257,
      "Ãªncia": 5258,
      "ÙĩÙħ": 5259,
      "éĺ³": 5260,
      "Ġconnect": 5261,
      "-se": 5262,
      "icon": 5263,
      "Ġcontinue": 5264,
      "ĠJe": 5265,
      "Ġliter": 5266,
      "Ġprobably": 5267,
      "85": 5268,
      "ube": 5269,
      "Ġtom": 5270,
      "Ġmiss": 5271,
      "Ġgar": 5272,
      "Ġword": 5273,
      "å¾Īå¤ļ": 5274,
      "ordin": 5275,
      "ops": 5276,
      "ĠCour": 5277,
      "ĠëĮĢ": 5278,
      "ĠList": 5279,
      "ç«ł": 5280,
      "ĠRev": 5281,
      "Ġexpected": 5282,
      "ĠìĤ¬": 5283,
      "aur": 5284,
      "Ġfont": 5285,
      "ëĲ": 5286,
      "ĠPe": 5287,
      "éĿŀå¸¸": 5288,
      "ĠØ¥ÙĦÙī": 5289,
      "Ġdigital": 5290,
      "ä¸įèĥ½": 5291,
      "Ġsecurity": 5292,
      "ÙĬÙĦ": 5293,
      "aine": 5294,
      "lation": 5295,
      "sych": 5296,
      "ĠHealth": 5297,
      "Ġassociated": 5298,
      "Ġsud": 5299,
      "Ġmedical": 5300,
      "ged": 5301,
      ".I": 5302,
      "ussi": 5303,
      "ëĵ¤": 5304,
      "ĠJust": 5305,
      "Ġep": 5306,
      "Ġë³": 5307,
      "bit": 5308,
      "oin": 5309,
      "wa": 5310,
      "cciÃ³n": 5311,
      "ivil": 5312,
      "ĠĠĠĠĠĠĠĠĠĠ": 5313,
      "can": 5314,
      "ï¼Įåıª": 5315,
      "Ġasked": 5316,
      "æĭħ": 5317,
      ".e": 5318,
      "ĠprÃ©": 5319,
      "Ġwriting": 5320,
      "mu": 5321,
      "Ġblood": 5322,
      "ìĹĲìĦľ": 5323,
      "ĠYour": 5324,
      "'Ċ": 5325,
      "oke": 5326,
      "wise": 5327,
      "reate": 5328,
      "è¼": 5329,
      "Ãªme": 5330,
      "Ġbes": 5331,
      "ĠØ´": 5332,
      "Bl": 5333,
      "Ġshows": 5334,
      "Ġimag": 5335,
      "Ġcand": 5336,
      "ç¨İ": 5337,
      "artment": 5338,
      "Ġexact": 5339,
      "Ġcontra": 5340,
      "ss": 5341,
      "ĠMark": 5342,
      "joy": 5343,
      "-based": 5344,
      "æĹı": 5345,
      "Ġfacil": 5346,
      "fully": 5347,
      "file": 5348,
      "Ġnecessary": 5349,
      "Ñī": 5350,
      "oles": 5351,
      "çĶ°": 5352,
      "éĽ»": 5353,
      "Ġcook": 5354,
      "sk": 5355,
      "cion": 5356,
      "Ġfait": 5357,
      "Ġsurface": 5358,
      "ĠAdd": 5359,
      "(d": 5360,
      "Ġusually": 5361,
      "ĠRec": 5362,
      "ĠëĤ": 5363,
      "Ġenter": 5364,
      "âĶ": 5365,
      "iddle": 5366,
      "77": 5367,
      "Ġnothing": 5368,
      "åĲĮæĹ¶": 5369,
      "iner": 5370,
      "æ¯į": 5371,
      "ĠRep": 5372,
      "Ġmuy": 5373,
      "Ġarm": 5374,
      "Ġtrack": 5375,
      "igr": 5376,
      "Ġay": 5377,
      "ĠInter": 5378,
      "itude": 5379,
      "ç®Ģ": 5380,
      "éĶĻ": 5381,
      "Ġaccom": 5382,
      "èĸ": 5383,
      "ãģ¨ãģª": 5384,
      "ĠMedic": 5385,
      "Ġcomplete": 5386,
      "ĠAcc": 5387,
      "zo": 5388,
      "Ġsense": 5389,
      "íĺ": 5390,
      "å±ħ": 5391,
      "å¾ĭ": 5392,
      "ully": 5393,
      "lim": 5394,
      "å¸Į": 5395,
      "apa": 5396,
      "èµ·æĿ¥": 5397,
      "ocol": 5398,
      "PI": 5399,
      "Ġaqu": 5400,
      "æ´»åĬ¨": 5401,
      "Ġmusic": 5402,
      "iÃ¨": 5403,
      "Ġrad": 5404,
      "dex": 5405,
      "ëŀ": 5406,
      "asc": 5407,
      "._": 5408,
      "rim": 5409,
      "That": 5410,
      "Ġhasta": 5411,
      "æĥħåł±": 5412,
      "Ġci": 5413,
      "Ġbackground": 5414,
      "Ġexpress": 5415,
      "ãģ»": 5416,
      "ifier": 5417,
      "æľ¨": 5418,
      "ternal": 5419,
      "})": 5420,
      "âĢ¢": 5421,
      "åĩ»": 5422,
      "Ġmodels": 5423,
      "ĠFin": 5424,
      "çĻ»": 5425,
      "Ġhost": 5426,
      "Ã±o": 5427,
      "èĥ½åĬĽ": 5428,
      "åĲ«": 5429,
      "imento": 5430,
      "cover": 5431,
      "Ġnight": 5432,
      "Ġmeasure": 5433,
      "éĻ©": 5434,
      "Ġpopular": 5435,
      "ãĤīãĤĮ": 5436,
      "Ġquant": 5437,
      "Ġstudies": 5438,
      "ii": 5439,
      "Ġ=Ċ": 5440,
      "gar": 5441,
      "Ġincludes": 5442,
      "Ġagre": 5443,
      "åŃ¦æł¡": 5444,
      "ambda": 5445,
      "è¦ģæ±Ĥ": 5446,
      "New": 5447,
      "åįĥ": 5448,
      "èį¯": 5449,
      "Be": 5450,
      "Ġìľ": 5451,
      "ï¼Ĵ": 5452,
      "Ã®": 5453,
      "Ġsett": 5454,
      "ester": 5455,
      "itter": 5456,
      "Field": 5457,
      "yt": 5458,
      "Ġpun": 5459,
      "},Ċ": 5460,
      "assert": 5461,
      "ãģĵãĤĮ": 5462,
      "ele": 5463,
      "Ġtip": 5464,
      "Ġconcept": 5465,
      "ĠSan": 5466,
      "èŀ": 5467,
      "ëĮĢ": 5468,
      "Ġpractice": 5469,
      "Ġprice": 5470,
      "til": 5471,
      "ĠprÃ©s": 5472,
      "Ġlength": 5473,
      "OC": 5474,
      "config": 5475,
      "ĠWorld": 5476,
      "Ġmodern": 5477,
      "åĿĩ": 5478,
      "åº·": 5479,
      "å³": 5480,
      "ĠJan": 5481,
      "Ġeffects": 5482,
      "ãģ«ãģ¤ãģĦãģ¦": 5483,
      "list": 5484,
      "inks": 5485,
      "itas": 5486,
      "Fr": 5487,
      "Ġsaf": 5488,
      "ocation": 5489,
      "ging": 5490,
      "ĠNov": 5491,
      "ufact": 5492,
      "é¤": 5493,
      "Ġpopulation": 5494,
      "ĠHer": 5495,
      "ottom": 5496,
      "Ġcommand": 5497,
      "iciÃ³n": 5498,
      "astic": 5499,
      "å¥½çļĦ": 5500,
      "ĠPat": 5501,
      "Ġassess": 5502,
      "Ġadded": 5503,
      "åŃ¦ä¹ł": 5504,
      "Ġcapital": 5505,
      "Ġwrite": 5506,
      "Ġcomment": 5507,
      "Ġwalk": 5508,
      "Ġeyes": 5509,
      "éħĴ": 5510,
      "Of": 5511,
      "é¡¹çĽ®": 5512,
      "Ġhon": 5513,
      "Ġmor": 5514,
      "Ġlat": 5515,
      "ï½ŀ": 5516,
      "atives": 5517,
      "ĠWest": 5518,
      "éĻį": 5519,
      "çĭ¬": 5520,
      "eme": 5521,
      "mathbf": 5522,
      "Ġcual": 5523,
      "193": 5524,
      "Ġindex": 5525,
      "ãĤµãĤ¤": 5526,
      "æīĢæľī": 5527,
      "è¿ĻäºĽ": 5528,
      "Ã§a": 5529,
      "æķ°æį®": 5530,
      "150": 5531,
      "\\n": 5532,
      "Ġmethods": 5533,
      "ugh": 5534,
      "oto": 5535,
      "endant": 5536,
      "Ġmultiple": 5537,
      "ĠAust": 5538,
      "è©±": 5539,
      "Ġaltern": 5540,
      "Ġconsidered": 5541,
      "hol": 5542,
      "ĠAc": 5543,
      "ĠAfter": 5544,
      "Ġfre": 5545,
      "annel": 5546,
      "Ġblack": 5547,
      "åĸĦ": 5548,
      "yth": 5549,
      "bon": 5550,
      "Ġresources": 5551,
      "eros": 5552,
      "point": 5553,
      "Ĺı": 5554,
      "ä¹Łæĺ¯": 5555,
      "ĨĴ": 5556,
      "ago": 5557,
      "Ġfoi": 5558,
      "ĠaÃ±o": 5559,
      "Ġconvers": 5560,
      "Ġinstead": 5561,
      "ÅĤ": 5562,
      "éģ¸": 5563,
      "zy": 5564,
      "isf": 5565,
      "ĠPre": 5566,
      "Model": 5567,
      "Result": 5568,
      "è¯¾": 5569,
      "è¯»": 5570,
      "Ġindepend": 5571,
      "Ġalign": 5572,
      "Ġvan": 5573,
      "IR": 5574,
      "Ġgrad": 5575,
      "åħ¶ä»ĸ": 5576,
      "File": 5577,
      "Ġveh": 5578,
      "ãģ«ãĤĤ": 5579,
      "anning": 5580,
      "enda": 5581,
      "ï¼Įå¯¹": 5582,
      "Ġarray": 5583,
      "é¾Ļ": 5584,
      "ï¼ĮæĪĳä»¬": 5585,
      ".w": 5586,
      "é»ĳ": 5587,
      "ĠMr": 5588,
      "Ġstatus": 5589,
      "iser": 5590,
      "Ġêµ": 5591,
      "ï¼Įè¿ĺ": 5592,
      "leep": 5593,
      "æĭ©": 5594,
      "Ġpal": 5595,
      "comes": 5596,
      "åĵª": 5597,
      "Ġmarg": 5598,
      "Ġestim": 5599,
      "Ġdurante": 5600,
      "Ġleur": 5601,
      "inc": 5602,
      "OP": 5603,
      "des": 5604,
      "ÑĤÐ¾": 5605,
      "url": 5606,
      "Ġactivity": 5607,
      "oot": 5608,
      "ided": 5609,
      "ĠChina": 5610,
      "ĠØ§ÙĦØ¨": 5611,
      "bert": 5612,
      "ĠÃºlt": 5613,
      "çµĮ": 5614,
      "ìĨ": 5615,
      "Ġcondition": 5616,
      "but": 5617,
      "41": 5618,
      "å¯Į": 5619,
      "Ġlegal": 5620,
      "Ġfeatures": 5621,
      "Ġthird": 5622,
      "Map": 5623,
      "[]": 5624,
      "Ġtransform": 5625,
      "å¿Ĺ": 5626,
      "Ġcontract": 5627,
      "ĠInstit": 5628,
      "Ġste": 5629,
      "é¦Ļ": 5630,
      "_r": 5631,
      "è¡¨ç¤º": 5632,
      "ĠØ¹ÙĨ": 5633,
      "gt": 5634,
      "Ġsig": 5635,
      "Ġsimply": 5636,
      "à¤¾": 5637,
      "æĸĩåĮĸ": 5638,
      "ban": 5639,
      "ãĢħ": 5640,
      "é»Ħ": 5641,
      "ĠUs": 5642,
      "Ø§Ø¬": 5643,
      "åį°": 5644,
      "Ġregular": 5645,
      "åĪļ": 5646,
      "Ġrights": 5647,
      "Ġmap": 5648,
      "ãģĴ": 5649,
      "å¤«": 5650,
      "Ġtiene": 5651,
      "Item": 5652,
      "eq": 5653,
      "Ġdisease": 5654,
      "Ġbisa": 5655,
      "ĠØ§ÙĦØ¬": 5656,
      "æ¦": 5657,
      "ili": 5658,
      "Ġê¸°": 5659,
      "]]Ċ": 5660,
      "ç»ĩ": 5661,
      "aves": 5662,
      "Ġdecision": 5663,
      "Ġstay": 5664,
      "ç¶ļ": 5665,
      "·¸": 5666,
      "ĠAN": 5667,
      "67": 5668,
      "ebut": 5669,
      "Ġbag": 5670,
      "ØªÙħ": 5671,
      "çĶ³": 5672,
      "è´Ł": 5673,
      "Ġunit": 5674,
      "Ġinstance": 5675,
      "Ġdesc": 5676,
      "Ġwidth": 5677,
      "'ll": 5678,
      "Ġfriends": 5679,
      "Ġprefer": 5680,
      "istics": 5681,
      "Ġadditional": 5682,
      "env": 5683,
      "ĠØ§ÙĦÙĤ": 5684,
      "Ġreceived": 5685,
      "ãĤ·ãĥ§ãĥ³": 5686,
      "From": 5687,
      "Ġmag": 5688,
      "åĽ´": 5689,
      "ĠÃªtre": 5690,
      "ivos": 5691,
      "rip": 5692,
      "èĻ½": 5693,
      "ĠSim": 5694,
      "Over": 5695,
      "vest": 5696,
      "ĠRet": 5697,
      "Ġdrug": 5698,
      "Ġmaintain": 5699,
      "________": 5700,
      "OD": 5701,
      "[i": 5702,
      "Ġunique": 5703,
      "Ġwait": 5704,
      "mon": 5705,
      "Ġcab": 5706,
      "ãģ£ãģ¦ãģĦãĤĭ": 5707,
      "Ġtal": 5708,
      "æĻĤéĸĵ": 5709,
      "Ð¾Ð³Ð¾": 5710,
      "Ġwhite": 5711,
      "ĠĠĠĠĠĠĠĠĠĠĠĠĠĠĠĠĠĠĠĠĠĠĠĠĠĠĠ": 5712,
      "Ġeffective": 5713,
      "ÙĦÙĥ": 5714,
      "Out": 5715,
      "å½±åĵį": 5716,
      "upy": 5717,
      "-C": 5718,
      "åħį": 5719,
      "Ġhot": 5720,
      "å¯Ĩ": 5721,
      "aining": 5722,
      "Ġsequ": 5723,
      "Up": 5724,
      "inding": 5725,
      "Ġë¶": 5726,
      "equation": 5727,
      "enc": 5728,
      "iet": 5729,
      "Ġevents": 5730,
      "Int": 5731,
      "Ġsituation": 5732,
      "Ġusers": 5733,
      "ä¸Ńå¿ĥ": 5734,
      "ç¼ĸ": 5735,
      "ĠWill": 5736,
      "Ġlonger": 5737,
      "rid": 5738,
      "amin": 5739,
      "éĩİ": 5740,
      "isions": 5741,
      "Ġliving": 5742,
      "Ġgas": 5743,
      "Ġitself": 5744,
      "192": 5745,
      "Ġaspect": 5746,
      "Info": 5747,
      "Ġvida": 5748,
      "çł´": 5749,
      "Ġyourself": 5750,
      "ĠDef": 5751,
      "Ġrecent": 5752,
      "_M": 5753,
      "change": 5754,
      "Ġinternational": 5755,
      "Ġregion": 5756,
      "98": 5757,
      "Ġago": 5758,
      "Ġreading": 5759,
      "Ġphysical": 5760,
      "Ġnil": 5761,
      "åĲ¦": 5762,
      "Ø¥": 5763,
      "Ġsix": 5764,
      "label": 5765,
      "izar": 5766,
      "Ġensure": 5767,
      "light": 5768,
      "å£²": 5769,
      "Ġneces": 5770,
      "43": 5771,
      "Ġang": 5772,
      "Ġinitial": 5773,
      "erap": 5774,
      "Ġdidn't": 5775,
      "ãĢĤåľ¨": 5776,
      "arrow": 5777,
      "ball": 5778,
      "Ġattack": 5779,
      "æ¥½": 5780,
      "men": 5781,
      "Ġoil": 5782,
      "ĠÙħØ¹": 5783,
      "Ġera": 5784,
      "Ġ)Ċ": 5785,
      "Ġsist": 5786,
      "Ġdeal": 5787,
      "Ġprotect": 5788,
      "åİ¿": 5789,
      "çĽĳ": 5790,
      "è®¾è®¡": 5791,
      "Ġcountries": 5792,
      "ç§»": 5793,
      "éº": 5794,
      "ãĤ½": 5795,
      "æŃ¦": 5796,
      "Ġdeux": 5797,
      "ä¸įåĲĮ": 5798,
      "åŁºæľ¬": 5799,
      "{equation": 5800,
      "Ġdivers": 5801,
      "ustr": 5802,
      "pan": 5803,
      "Ġlic": 5804,
      "Ġenjoy": 5805,
      "dis": 5806,
      "mathcal": 5807,
      "Ġbox": 5808,
      "bers": 5809,
      "vey": 5810,
      "ees": 5811,
      "actions": 5812,
      "'est": 5813,
      "Rep": 5814,
      "elles": 5815,
      "Les": 5816,
      "Ð¾Ñģ": 5817,
      "Ġprogress": 5818,
      "oring": 5819,
      "ä¸įä¼ļ": 5820,
      "Ġunivers": 5821,
      "è»Ĭ": 5822,
      "æĶ¿åºľ": 5823,
      "Text": 5824,
      "ë¶Ģ": 5825,
      "ĠStr": 5826,
      "Ġperfect": 5827,
      "Ġmort": 5828,
      "Ġavoid": 5829,
      "output": 5830,
      "uj": 5831,
      "åĪĨæŀĲ": 5832,
      "ĠData": 5833,
      "Form": 5834,
      "rt": 5835,
      "åº§": 5836,
      "äºĳ": 5837,
      "Ġoc": 5838,
      "Ġaussi": 5839,
      "æł¸": 5840,
      "ä¼¼": 5841,
      "éĢīæĭ©": 5842,
      "eks": 5843,
      "Ġpositive": 5844,
      "Ġwritten": 5845,
      "Ġlimit": 5846,
      "Ġtakes": 5847,
      "heck": 5848,
      ".add": 5849,
      "ĠInst": 5850,
      "Ġcer": 5851,
      "ĠGoogle": 5852,
      "ĠSchool": 5853,
      "cm": 5854,
      "å°½": 5855,
      "ĠThen": 5856,
      "Ġvirt": 5857,
      "Ġflex": 5858,
      "(p": 5859,
      ")\\": 5860,
      "ĠsÃ©": 5861,
      "Ġmit": 5862,
      "Ø¦": 5863,
      "unction": 5864,
      "ë©´": 5865,
      "irit": 5866,
      "Ġpattern": 5867,
      "xy": 5868,
      "çļ®": 5869,
      "âĢĶâĢĶ": 5870,
      "{en": 5871,
      "ç´Ħ": 5872,
      "Ġwanted": 5873,
      "sub": 5874,
      "ĠSal": 5875,
      "Ġaverage": 5876,
      "uge": 5877,
      "Ġtim": 5878,
      "Ġquite": 5879,
      "Ġdescribed": 5880,
      "ĠØ§ÙĦØ¥": 5881,
      "è´Ń": 5882,
      "58": 5883,
      "Ġfaire": 5884,
      "Ġpack": 5885,
      "Ġstates": 5886,
      "Ġground": 5887,
      "ãĥļ": 5888,
      "æĸ¹å¼ı": 5889,
      "ÙĪÙĤ": 5890,
      "Ġconcent": 5891,
      "ìĻ": 5892,
      "kn": 5893,
      "aga": 5894,
      "Ġoption": 5895,
      "Ġcross": 5896,
      "ÐµÐ¼": 5897,
      "Ġregist": 5898,
      "Ġexerc": 5899,
      "],Ċ": 5900,
      "Ġmut": 5901,
      "ï¼ĮâĢľ": 5902,
      "ãĤ¶": 5903,
      "One": 5904,
      "year": 5905,
      "ãĥ©ãĤ¤": 5906,
      "ĠSm": 5907,
      "Ġdeep": 5908,
      "çīĮ": 5909,
      "Ġwall": 5910,
      "ĠApr": 5911,
      "ãĤ¬": 5912,
      "Ġlay": 5913,
      "ĠWeb": 5914,
      "ella": 5915,
      "rupt": 5916,
      "Ġclean": 5917,
      "ï¼Įä½Ĩæĺ¯": 5918,
      "Ġyou're": 5919,
      "-to": 5920,
      "Ġtransport": 5921,
      "Ġfit": 5922,
      "ëª": 5923,
      "ëŁ": 5924,
      "Ġnews": 5925,
      "ãĥı": 5926,
      "ĠAnda": 5927,
      "unicip": 5928,
      "Ø±Ø¨": 5929,
      "Ġagr": 5930,
      "uros": 5931,
      "Ġremov": 5932,
      "Response": 5933,
      "Ġì§Ģ": 5934,
      "}$,": 5935,
      "Ġdemon": 5936,
      "Ġoutside": 5937,
      "ä¸¥": 5938,
      "Ġpeng": 5939,
      "={": 5940,
      "Ġded": 5941,
      "-n": 5942,
      "Ġhay": 5943,
      "ught": 5944,
      "ĠDon": 5945,
      "æ¯Ľ": 5946,
      "Ġselect": 5947,
      "ĠØ§ÙĦØ¯": 5948,
      "ãĤĪãĤĬ": 5949,
      "è¿Ļç§į": 5950,
      "Ġeveryone": 5951,
      "cos": 5952,
      "Ġìĥ": 5953,
      "```ĊĊ": 5954,
      "angle": 5955,
      "Ġhistor": 5956,
      "iendo": 5957,
      "ster": 5958,
      "imo": 5959,
      "gn": 5960,
      "åŁ¹": 5961,
      "ë²": 5962,
      "PC": 5963,
      "uda": 5964,
      "Ġband": 5965,
      "'d": 5966,
      "ä¸ªäºº": 5967,
      "Ġmechan": 5968,
      "ĠFrance": 5969,
      "Ġthemselves": 5970,
      "Ġ|Ċ": 5971,
      "å®ĺ": 5972,
      "ê²Į": 5973,
      "Inter": 5974,
      "ocks": 5975,
      "Ġskills": 5976,
      "create": 5977,
      "Ġpurch": 5978,
      "¹Ħ": 5979,
      "Ġapr": 5980,
      "Event": 5981,
      "Ġíķ": 5982,
      "ĠST": 5983,
      "Ġpersonas": 5984,
      "Ġforce": 5985,
      "Ġability": 5986,
      "Ġrelig": 5987,
      "Ġmedic": 5988,
      "ĠMc": 5989,
      "Def": 5990,
      "ëħ": 5991,
      "ìĿ¼": 5992,
      "57": 5993,
      "ä½ľä¸º": 5994,
      "used": 5995,
      "Dis": 5996,
      "Ġactivities": 5997,
      "esis": 5998,
      "board": 5999,
      "Ġters": 6000,
      "eria": 6001,
      "âĢĿ.": 6002,
      "Ġemail": 6003,
      "dom": 6004,
      "Ġsust": 6005,
      "ĠForm": 6006,
      "ìłģ": 6007,
      "ÙħÙĨ": 6008,
      "_F": 6009,
      "ename": 6010,
      "ãģ§ãģĻãģĮ": 6011,
      "CE": 6012,
      "ifest": 6013,
      "69": 6014,
      "æ½": 6015,
      "body": 6016,
      "Ġcompar": 6017,
      "ipe": 6018,
      "Ġculture": 6019,
      "å¤§å®¶": 6020,
      "ä»¤": 6021,
      "é¸": 6022,
      "ĠDE": 6023,
      "Ent": 6024,
      "();ĊĊ": 6025,
      "prise": 6026,
      "MS": 6027,
      "Ġconsult": 6028,
      "ä¸ĬçļĦ": 6029,
      "èŀį": 6030,
      "æ²³": 6031,
      "Ġconstit": 6032,
      "Ġsound": 6033,
      "ĠRed": 6034,
      "Ġfeed": 6035,
      "Ġtitle": 6036,
      "Ġdiff": 6037,
      "äºļ": 6038,
      "çıŃ": 6039,
      "ÑĤÑĮ": 6040,
      "aran": 6041,
      "Ġëĵ": 6042,
      "ç¢º": 6043,
      "ĠSouth": 6044,
      "Ġmagn": 6045,
      "Ġimprove": 6046,
      "igen": 6047,
      "Ġbon": 6048,
      "Ġbehind": 6049,
      "soft": 6050,
      "ĠØ§ÙĦÙĨ": 6051,
      "Â«": 6052,
      "çĶŁäº§": 6053,
      "Path": 6054,
      "åįı": 6055,
      "emÃ¡s": 6056,
      "è½½": 6057,
      "Ġpeut": 6058,
      "ati": 6059,
      "Ġfoot": 6060,
      "ëĤĺ": 6061,
      "Ġcandid": 6062,
      "itect": 6063,
      "((": 6064,
      "aker": 6065,
      "çŁŃ": 6066,
      "é£ŀ": 6067,
      "æį¢": 6068,
      "reet": 6069,
      "ä¸ĢäºĽ": 6070,
      "PR": 6071,
      "120": 6072,
      "èªį": 6073,
      "ãĥĽ": 6074,
      "ola": 6075,
      "pty": 6076,
      "åĵ¡": 6077,
      "åĪ»": 6078,
      "ÑĨÐ¸": 6079,
      "Ġincluded": 6080,
      "æ¿Ģ": 6081,
      "Ġcolumn": 6082,
      "Ġdraw": 6083,
      "Ð´Ð°": 6084,
      "çĪ¶": 6085,
      "Ġparents": 6086,
      "car": 6087,
      "ä¸ºäºĨ": 6088,
      "Ġplatform": 6089,
      "amma": 6090,
      "ĠEnglish": 6091,
      "uto": 6092,
      "_D": 6093,
      "ç«¯": 6094,
      "Ġemerg": 6095,
      "Ġdonde": 6096,
      "Ġchalleng": 6097,
      "ĠØ§ÙĦØ´": 6098,
      "Ġsua": 6099,
      "ìĥģ": 6100,
      "åħŃ": 6101,
      "Ġflu": 6102,
      "Ġseems": 6103,
      "ÃŃcul": 6104,
      "ãģ¦ãģĦãģ¾ãģĻ": 6105,
      "åĭĻ": 6106,
      "df": 6107,
      "valid": 6108,
      "Ġstress": 6109,
      "Ġpolitical": 6110,
      "Ġstudent": 6111,
      "è§īå¾Ĺ": 6112,
      "ĠMich": 6113,
      "Ġinside": 6114,
      "ļĮ": 6115,
      "ĠTest": 6116,
      "åŃĺåľ¨": 6117,
      "Ġprep": 6118,
      "inos": 6119,
      "html": 6120,
      "ami": 6121,
      "isi": 6122,
      "Ġslow": 6123,
      "Ġauth": 6124,
      "oma": 6125,
      "ĠPort": 6126,
      "Ġheld": 6127,
      "ĠGeneral": 6128,
      "aily": 6129,
      "Ġsend": 6130,
      "upyter": 6131,
      "cons": 6132,
      "|c": 6133,
      "Ġdil": 6134,
      "QU": 6135,
      "uses": 6136,
      "ĠII": 6137,
      "aving": 6138,
      "ĠÐ¡": 6139,
      "Ġple": 6140,
      "åį¡": 6141,
      "ãĥ³ãĥī": 6142,
      "\">Ċ": 6143,
      "ä¸Ģå®ļ": 6144,
      "åıĳçİ°": 6145,
      "Ġbir": 6146,
      "ç´¢": 6147,
      "Ġmicro": 6148,
      "Ø¹Ø¯": 6149,
      "Ġ${": 6150,
      "web": 6151,
      "ĠDav": 6152,
      "rap": 6153,
      "å¿ľ": 6154,
      "Ġclin": 6155,
      "?âĢĿ": 6156,
      "Trans": 6157,
      "Ġchem": 6158,
      "Ġcomputer": 6159,
      "sa": 6160,
      "Ġdouble": 6161,
      "åºĶè¯¥": 6162,
      "Ġcuando": 6163,
      "Ġincreased": 6164,
      "ĠÑĩ": 6165,
      "imos": 6166,
      "å¸®": 6167,
      "Ġprograms": 6168,
      ".r": 6169,
      "icio": 6170,
      "æĹħ": 6171,
      "Ġ<<": 6172,
      "igma": 6173,
      "é¨": 6174,
      "')": 6175,
      "rial": 6176,
      "ercial": 6177,
      "Ġatau": 6178,
      "mission": 6179,
      "Ġtro": 6180,
      "âĢĻune": 6181,
      "åħ´": 6182,
      "ĠMus": 6183,
      "59": 6184,
      "è®²": 6185,
      "ãĤĪãģĨãģ«": 6186,
      "æĢ¥": 6187,
      "Ãī": 6188,
      "Ġsab": 6189,
      "')Ċ": 6190,
      "Node": 6191,
      "ãĥĶ": 6192,
      "Est": 6193,
      "çĽ´æİ¥": 6194,
      "è³ĩ": 6195,
      "-B": 6196,
      "Ġcopy": 6197,
      "........": 6198,
      "Ġaffect": 6199,
      "Ġmejor": 6200,
      "ĠBrit": 6201,
      "åĽŃ": 6202,
      "ĠResearch": 6203,
      "elect": 6204,
      "ivate": 6205,
      "/d": 6206,
      "åĶ®": 6207,
      "ÙħÙĦ": 6208,
      "Ġstd": 6209,
      "åºı": 6210,
      "amples": 6211,
      "EX": 6212,
      "Ġmix": 6213,
      "ìļ©": 6214,
      "Ġdifference": 6215,
      "Ø±Ùĥ": 6216,
      "jupyter": 6217,
      "Date": 6218,
      "}}ĊĊ": 6219,
      "191": 6220,
      "ches": 6221,
      "Â°": 6222,
      "åĨ·": 6223,
      "encies": 6224,
      "Ø±Ø©": 6225,
      "è¾¼": 6226,
      "ãĢİ": 6227,
      "Ġlabor": 6228,
      "orr": 6229,
      "Ġrelev": 6230,
      "Ġfire": 6231,
      "è¿½": 6232,
      "ìĦ±": 6233,
      "itable": 6234,
      "åħ«": 6235,
      "æĺ¥": 6236,
      "çĸĹ": 6237,
      "´Ģ": 6238,
      "ÑģÑı": 6239,
      "Ġdetails": 6240,
      "âĢĿçļĦ": 6241,
      "æĬķèµĦ": 6242,
      "ÙĪØ¯": 6243,
      "Ġappropri": 6244,
      "çĶ£": 6245,
      "ãĢı": 6246,
      "ians": 6247,
      "Ġpressure": 6248,
      "Ġhope": 6249,
      "icht": 6250,
      "Ġunderstanding": 6251,
      "è´¢": 6252,
      "core": 6253,
      "Ġvac": 6254,
      "!!": 6255,
      "result": 6256,
      "æľĿ": 6257,
      "erman": 6258,
      "æĭĽ": 6259,
      "oi": 6260,
      "iance": 6261,
      "conn": 6262,
      "Ġexplic": 6263,
      "Ġej": 6264,
      "atur": 6265,
      "Ġvoc": 6266,
      "Ġattention": 6267,
      "çķ¥": 6268,
      "ãĢģãĢĮ": 6269,
      ".)": 6270,
      "IF": 6271,
      "Ġrunning": 6272,
      "ĠPaul": 6273,
      "Ġdifer": 6274,
      "Ġces": 6275,
      "][": 6276,
      "Ġbec": 6277,
      "Ġporque": 6278,
      "Ġhimself": 6279,
      "Ġfriend": 6280,
      "igned": 6281,
      "izer": 6282,
      "Ġtransfer": 6283,
      "teger": 6284,
      "ä»ĸçļĦ": 6285,
      "Ġped": 6286,
      "Ġblog": 6287,
      "content": 6288,
      "ĠCity": 6289,
      "Ġcit": 6290,
      "ìłľ": 6291,
      "Ġsatisf": 6292,
      "Ġmention": 6293,
      "'ve": 6294,
      "Ġmeny": 6295,
      "Ġsn": 6296,
      "èĭ¥": 6297,
      "Ġmundo": 6298,
      "ÐºÐ¸": 6299,
      "ham": 6300,
      "Ġmanufact": 6301,
      "Ġord": 6302,
      "uns": 6303,
      "Ġwrong": 6304,
      "ç´§": 6305,
      "erve": 6306,
      "Ġforward": 6307,
      "Ġhands": 6308,
      "ses": 6309,
      "ĠAug": 6310,
      "Ġmayor": 6311,
      "Ġauto": 6312,
      "summary": 6313,
      "åĪ¤": 6314,
      "ouble": 6315,
      "las": 6316,
      "Ġpatient": 6317,
      "åĩºçİ°": 6318,
      "My": 6319,
      "ĠpÃºblic": 6320,
      "airs": 6321,
      "Ġbeaut": 6322,
      "ĠBu": 6323,
      "contr": 6324,
      "Ġeconomic": 6325,
      "ãĥªãĥ¼": 6326,
      "Ġvon": 6327,
      "æĿ±": 6328,
      "Ùĳ": 6329,
      "Ġgraph": 6330,
      "_h": 6331,
      "inition": 6332,
      "ãĤĢ": 6333,
      "Ġheav": 6334,
      "Ġestud": 6335,
      "åı¦": 6336,
      "å½ķ": 6337,
      "Ġfast": 6338,
      "inn": 6339,
      "Ġbenefits": 6340,
      "ä¹ĭåĲİ": 6341,
      "ì¹": 6342,
      "itos": 6343,
      "unk": 6344,
      "Ġappear": 6345,
      "udad": 6346,
      ".B": 6347,
      "Class": 6348,
      "Ġhacer": 6349,
      "æ³¢": 6350,
      "Ġsaw": 6351,
      "arc": 6352,
      ",\\": 6353,
      "Ġload": 6354,
      "Ġju": 6355,
      "ç»Ŀ": 6356,
      "åĲ¸": 6357,
      "ãģĳãĤĭ": 6358,
      "æĺ¯ä¸Ģ": 6359,
      "Ġdefined": 6360,
      "æĤ¨": 6361,
      "ponent": 6362,
      "Ġëª": 6363,
      "ä¾¡": 6364,
      "istry": 6365,
      "Ġinvolved": 6366,
      "ï¼Įåħ¶": 6367,
      "ç»Ħç»ĩ": 6368,
      "Ġallows": 6369,
      "ä»ķ": 6370,
      "ĠVer": 6371,
      "hr": 6372,
      "ä¼¤": 6373,
      "Ġfactors": 6374,
      "Ġlocation": 6375,
      "èª¿": 6376,
      "TS": 6377,
      "Ġleave": 6378,
      "Ġgran": 6379,
      "image": 6380,
      "ĠAmerica": 6381,
      "ä¸¾": 6382,
      "Ġrat": 6383,
      "Ġscient": 6384,
      "iste": 6385,
      "Ġstrength": 6386,
      "Ġelements": 6387,
      "sl": 6388,
      "åķĨåĵģ": 6389,
      "urt": 6390,
      "Ġtit": 6391,
      "ĠNorth": 6392,
      "dev": 6393,
      "Ø§Ùĭ": 6394,
      "äººåĳĺ": 6395,
      "ĠCount": 6396,
      "Ġnut": 6397,
      "ela": 6398,
      "apping": 6399,
      "æĭ¿": 6400,
      "active": 6401,
      "Ġprepar": 6402,
      "Ġparts": 6403,
      "Ġreported": 6404,
      "ties": 6405,
      "Ġdiagn": 6406,
      "isis": 6407,
      "aries": 6408,
      "Ġadult": 6409,
      "RA": 6410,
      "Ġsoon": 6411,
      "Ġremember": 6412,
      "Ġcapt": 6413,
      "lick": 6414,
      "Ġdeveloped": 6415,
      "Ġpick": 6416,
      "ientes": 6417,
      "ä¸ĢèĪ¬": 6418,
      "Ð»Ðµ": 6419,
      "Ġcommit": 6420,
      "æŁĲ": 6421,
      "56": 6422,
      "Us": 6423,
      "rea": 6424,
      "è½¯": 6425,
      "Ġ);Ċ": 6426,
      "æĪĳçļĦ": 6427,
      "Ġdemonstr": 6428,
      "room": 6429,
      "uman": 6430,
      "usiness": 6431,
      "ĠNone": 6432,
      "ãģŁãģĦ": 6433,
      "ĠLos": 6434,
      "Ġ$(": 6435,
      "ĠìłĦ": 6436,
      "ĠÎ": 6437,
      "Ġmarketing": 6438,
      "Ġcredit": 6439,
      "uv": 6440,
      "ĠHar": 6441,
      "ĠProgram": 6442,
      "Code": 6443,
      "Ġsubs": 6444,
      "Ġitem": 6445,
      "ãĤ¹ãĤ¿": 6446,
      "Ġimmedi": 6447,
      "Ġdesigned": 6448,
      "Ġpublished": 6449,
      "ĠÐ·Ð°": 6450,
      "oo": 6451,
      "äººæ°ĳ": 6452,
      "èĥĮ": 6453,
      "graph": 6454,
      "å·¦": 6455,
      "çĹĩ": 6456,
      "Ġtravel": 6457,
      "Ġfra": 6458,
      "Ġnombre": 6459,
      "èĦ¸": 6460,
      "DF": 6461,
      "Ser": 6462,
      "çĽ®åīį": 6463,
      "Ġsomet": 6464,
      "_type": 6465,
      "Ġlives": 6466,
      "Ġdirectly": 6467,
      "æ¯Ķè¾ĥ": 6468,
      "ä¹ħ": 6469,
      "å©ļ": 6470,
      "hold": 6471,
      "å·¥ç¨ĭ": 6472,
      "Ġopin": 6473,
      "-g": 6474,
      "ucle": 6475,
      "å¦Ī": 6476,
      "Ġadalah": 6477,
      "oco": 6478,
      "Ġjava": 6479,
      "True": 6480,
      "Ġinj": 6481,
      "Ġbank": 6482,
      "Ġgest": 6483,
      "uent": 6484,
      "Ġattempt": 6485,
      "Ġsans": 6486,
      "ĠSant": 6487,
      "Read": 6488,
      "ecause": 6489,
      "Ġadapt": 6490,
      "Ġspeed": 6491,
      "ï¼Įå¥¹": 6492,
      "Ġcancer": 6493,
      "Att": 6494,
      ">>": 6495,
      "Ġê°Ģ": 6496,
      "Ġpropos": 6497,
      "åħ³ç³»": 6498,
      "arily": 6499,
      "íĬ": 6500,
      "-P": 6501,
      "Ġ__": 6502,
      "-v": 6503,
      "èĩªåĪĨ": 6504,
      "Ġapplications": 6505,
      "ailed": 6506,
      "ĠOur": 6507,
      "has": 6508,
      "agon": 6509,
      "æĵį": 6510,
      "äºĴ": 6511,
      "Ġmilit": 6512,
      "çİ©": 6513,
      "efore": 6514,
      "ãĤĵãģª": 6515,
      "ervices": 6516,
      "ald": 6517,
      "Ġdoesn": 6518,
      "olean": 6519,
      "ĠÐ°": 6520,
      "ä½Ļ": 6521,
      "ãĥľ": 6522,
      "\";Ċ": 6523,
      "Ġcosts": 6524,
      "åı³": 6525,
      "ĠInternational": 6526,
      "ĠTechn": 6527,
      "ĠDi": 6528,
      "ĠJes": 6529,
      "ĠSet": 6530,
      "Ġut": 6531,
      "é¡»": 6532,
      "ĠSol": 6533,
      "bt": 6534,
      "ĠCenter": 6535,
      ")(": 6536,
      "Ġdro": 6537,
      "+\\": 6538,
      "bih": 6539,
      "leh": 6540,
      "ronic": 6541,
      "Rec": 6542,
      "Ġbecame": 6543,
      "../": 6544,
      "Ġprincipal": 6545,
      "Ġabsol": 6546,
      "Ġva": 6547,
      "Ġtiem": 6548,
      "èĩªçĦ¶": 6549,
      "Ġcry": 6550,
      "Af": 6551,
      "bor": 6552,
      "éĢ£": 6553,
      "mos": 6554,
      "ellow": 6555,
      "éĵ¶": 6556,
      "endre": 6557,
      "Mod": 6558,
      "Ġdirection": 6559,
      "Ã¡rio": 6560,
      "ãģ®ãģ¯": 6561,
      "Ġincl": 6562,
      "ML": 6563,
      "Ġparty": 6564,
      "nd": 6565,
      ".in": 6566,
      "Ġindividuals": 6567,
      "Ġlug": 6568,
      "ĠSi": 6569,
      "fficient": 6570,
      "å¯Ł": 6571,
      "Ġcoming": 6572,
      "èīº": 6573,
      "ativa": 6574,
      "ĠOct": 6575,
      "Ġpeu": 6576,
      "Ġtour": 6577,
      "å¸ĮæľĽ": 6578,
      "Ġaim": 6579,
      "Ġaccur": 6580,
      "æ³¨æĦı": 6581,
      "Ġanyone": 6582,
      "Ġcaso": 6583,
      "è¿Ļä¸Ģ": 6584,
      "Ġult": 6585,
      "###": 6586,
      "Hand": 6587,
      "ĠmÃªme": 6588,
      "Ġcompared": 6589,
      "èĨ": 6590,
      "ÑĬ": 6591,
      "term": 6592,
      "ĠDel": 6593,
      "Ġheight": 6594,
      "æĪĲä¸º": 6595,
      "time": 6596,
      "ç½Ĺ": 6597,
      "EST": 6598,
      "Ġsen": 6599,
      "agai": 6600,
      "Ġstore": 6601,
      "Ġactive": 6602,
      "ography": 6603,
      "coming": 6604,
      "Ð¼Ð¸": 6605,
      "oul": 6606,
      "íķĺëĬĶ": 6607,
      "ĠLo": 6608,
      "Ġceleb": 6609,
      "Ġbed": 6610,
      "Acc": 6611,
      "Am": 6612,
      "verse": 6613,
      "otal": 6614,
      "åĢĭ": 6615,
      "ç»ľ": 6616,
      "çĹĽ": 6617,
      "ello": 6618,
      "uary": 6619,
      "acing": 6620,
      "asons": 6621,
      "Ġcustomers": 6622,
      "Ġoffice": 6623,
      "Ġfeature": 6624,
      "Ġincreasing": 6625,
      "Reg": 6626,
      "\".Ċ": 6627,
      "Ġjour": 6628,
      "Ġtools": 6629,
      "ĠtrÃ¨s": 6630,
      "Ġnode": 6631,
      "rec": 6632,
      "edia": 6633,
      "Ġformat": 6634,
      "'un": 6635,
      "ĠCourt": 6636,
      "Ġein": 6637,
      "å·Ŀ": 6638,
      "çİ¯å¢ĥ": 6639,
      "é¨ĵ": 6640,
      "ĠCoun": 6641,
      "ithub": 6642,
      "Ġdoc": 6643,
      "king": 6644,
      "Ġworth": 6645,
      "Ġmaterials": 6646,
      "ÑĢÑĥ": 6647,
      "Ø§Ø³Øª": 6648,
      "ĠprÃ³": 6649,
      "Ġsea": 6650,
      "Ġbooks": 6651,
      "package": 6652,
      "èĻ½çĦ¶": 6653,
      "Ġplease": 6654,
      "Ġautor": 6655,
      "Ġseu": 6656,
      "åı«": 6657,
      "Ġfore": 6658,
      "ä¹İ": 6659,
      "itÃ©s": 6660,
      "Ġstaff": 6661,
      "ãĥĨãĤ£": 6662,
      "ĠâĢ¦": 6663,
      "190": 6664,
      "Ġdoesn't": 6665,
      "ĠWhile": 6666,
      "èĤī": 6667,
      "irt": 6668,
      "çĽ¸åħ³": 6669,
      "ä¸Ģæł·": 6670,
      "Ġdidn": 6671,
      "rier": 6672,
      "abled": 6673,
      "ĠHol": 6674,
      "Ġbud": 6675,
      "Ġconstant": 6676,
      "py": 6677,
      "ĠĠĠĠĠĠĠĠĠĠĠĠĠĠ": 6678,
      "Ġmemory": 6679,
      "ĠSw": 6680,
      "atively": 6681,
      "æĪĸèĢħ": 6682,
      "Ġreceive": 6683,
      "Ġreduce": 6684,
      "ĠrÃ©s": 6685,
      "Ġpem": 6686,
      "anz": 6687,
      "ê¸": 6688,
      "åĩı": 6689,
      "xi": 6690,
      "ierno": 6691,
      "Ġpretty": 6692,
      "Ġhabit": 6693,
      "aje": 6694,
      "PL": 6695,
      "Ġinnov": 6696,
      "Ġcentral": 6697,
      "Index": 6698,
      "ä»£è¡¨": 6699,
      "çģµ": 6700,
      "_N": 6701,
      "ĠInc": 6702,
      "ington": 6703,
      "pes": 6704,
      "Ø¨Ø±": 6705,
      "esse": 6706,
      "ç»§": 6707,
      "ãģĹãģ¦ãģĦãģ¾ãģĻ": 6708,
      "terior": 6709,
      "Ġhy": 6710,
      "ìĪĺ": 6711,
      "Ġimages": 6712,
      "è®¤ä¸º": 6713,
      "Ġsector": 6714,
      "ĠDirect": 6715,
      "eline": 6716,
      "ÂłÂłÂłÂł": 6717,
      "è¾ĵ": 6718,
      "ĠIS": 6719,
      "å±ĭ": 6720,
      "ĠPal": 6721,
      "Ġfig": 6722,
      "600": 6723,
      "UM": 6724,
      "Ġpict": 6725,
      "usion": 6726,
      "åįļ": 6727,
      "PE": 6728,
      "æľĭ": 6729,
      "æĻļ": 6730,
      "umerate": 6731,
      "ë§Į": 6732,
      "Ġcin": 6733,
      "Ġnov": 6734,
      "Do": 6735,
      "Log": 6736,
      "ĠSa": 6737,
      "åı¥": 6738,
      "ĠRuss": 6739,
      "ä¼ĳ": 6740,
      "ç¾İåĽ½": 6741,
      "ãģĿãģĨ": 6742,
      "Ġtouch": 6743,
      "å¥ĩ": 6744,
      "Ġserver": 6745,
      "ĠmÃ©d": 6746,
      "Ġuses": 6747,
      "Ġresid": 6748,
      "åĸľæ¬¢": 6749,
      "Ġada": 6750,
      "æĪı": 6751,
      "ĠNow": 6752,
      "ë³´": 6753,
      "IA": 6754,
      "insi": 6755,
      "çłģ": 6756,
      "ĠSen": 6757,
      "é¼": 6758,
      "orith": 6759,
      "é¡Į": 6760,
      "Ġcos": 6761,
      "see": 6762,
      "Ġliv": 6763,
      "igo": 6764,
      "more": 6765,
      "ffect": 6766,
      "ëį": 6767,
      "Ġfelt": 6768,
      "ĠSee": 6769,
      "Ġgreater": 6770,
      "âĢĻÃ©": 6771,
      "å¼Ĥ": 6772,
      "Ð¾Ð±": 6773,
      "Ġtemperature": 6774,
      "Ġmulti": 6775,
      "ahan": 6776,
      "Ġacqu": 6777,
      "Ġjun": 6778,
      "ously": 6779,
      "gs": 6780,
      "bed": 6781,
      "å¤ľ": 6782,
      "å¦Ĥä½ķ": 6783,
      "Ġespecial": 6784,
      "å¼·": 6785,
      "ĠWar": 6786,
      "Ġdog": 6787,
      "Ġidentify": 6788,
      "é²": 6789,
      "åıĤåĬł": 6790,
      "aca": 6791,
      "ĠIt's": 6792,
      "Ġgirl": 6793,
      "Ġexpression": 6794,
      "stract": 6795,
      "Ġcollection": 6796,
      "ä¸ĵä¸ļ": 6797,
      "Ġbound": 6798,
      "è¿°": 6799,
      "thern": 6800,
      "%%": 6801,
      "ĠGre": 6802,
      "çķª": 6803,
      "ĠMarch": 6804,
      "Ġpelo": 6805,
      "¡°": 6806,
      "Message": 6807,
      "ĠcrÃ©": 6808,
      "ensity": 6809,
      "çĦ¶åĲİ": 6810,
      "pret": 6811,
      "path": 6812,
      "stant": 6813,
      "-align": 6814,
      "Ġ()": 6815,
      "Ġexcept": 6816,
      "Ġsed": 6817,
      "æī§": 6818,
      "Ġtur": 6819,
      "Ġchoose": 6820,
      "osis": 6821,
      "Ġpurpose": 6822,
      "Ġcru": 6823,
      "Ġdrop": 6824,
      "########": 6825,
      "Ġideas": 6826,
      "Ġones": 6827,
      "éļĽ": 6828,
      "Ġsave": 6829,
      "97": 6830,
      "nel": 6831,
      "/or": 6832,
      "ĠÐ½Ðµ": 6833,
      "ä¼ļç¤¾": 6834,
      "Ġnote": 6835,
      "Ġsqu": 6836,
      "Ġdownload": 6837,
      "ĠSept": 6838,
      "Ġwonder": 6839,
      "argo": 6840,
      "Ġspect": 6841,
      "Ġlines": 6842,
      "iat": 6843,
      "æŁĵ": 6844,
      "Ġrot": 6845,
      "Ġitems": 6846,
      "Ġpsych": 6847,
      "Ġskin": 6848,
      "èĦĳ": 6849,
      "ĠDepartment": 6850,
      "çµĲ": 6851,
      "Ġlleg": 6852,
      "Ġtowards": 6853,
      "ÑĢÐ¾": 6854,
      "ÙĬÙħ": 6855,
      "eful": 6856,
      "-up": 6857,
      "Ġpush": 6858,
      "Ġê²ĥ": 6859,
      "Ġlack": 6860,
      "></": 6861,
      "åĢĴ": 6862,
      "Table": 6863,
      "onom": 6864,
      "Ġalt": 6865,
      "uir": 6866,
      "vention": 6867,
      "èĭ¦": 6868,
      "Ġdoor": 6869,
      "Ġseason": 6870,
      "haps": 6871,
      "Ġprimary": 6872,
      "è®Ń": 6873,
      "Ġweeks": 6874,
      "ĠBer": 6875,
      "Ġlab": 6876,
      "function": 6877,
      "æī¹": 6878,
      "Ġdapat": 6879,
      "Ġtas": 6880,
      "Ð¾Ðº": 6881,
      "ãģ«ãģĬ": 6882,
      "ç¹": 6883,
      "ï¼ĮæīĢä»¥": 6884,
      "enses": 6885,
      "ydro": 6886,
      "ĉpublic": 6887,
      "Ġcurrently": 6888,
      "ãģĮãģĤãĤĭ": 6889,
      "Ġfiles": 6890,
      "èŃ¦": 6891,
      "Ġdeliver": 6892,
      "èĴ": 6893,
      "ĠLet": 6894,
      "ĠTra": 6895,
      "Ġbegan": 6896,
      "ĠAustral": 6897,
      "Ġpand": 6898,
      "Ġreference": 6899,
      "æŃĮ": 6900,
      "ç¬¬äºĮ": 6901,
      "æıĲé«ĺ": 6902,
      "ë¯": 6903,
      "Ġbuilt": 6904,
      "âĢĻh": 6905,
      "ĠJos": 6906,
      "éĿ©": 6907,
      "ãĥİ": 6908,
      "ĠtambÃ©m": 6909,
      "';Ċ": 6910,
      "Ġdecre": 6911,
      ".N": 6912,
      "cast": 6913,
      "ĠEduc": 6914,
      "Ġlate": 6915,
      "-de": 6916,
      "void": 6917,
      "ieron": 6918,
      "è¨Ī": 6919,
      "Ġcommunication": 6920,
      "åıĳçĶŁ": 6921,
      "Ab": 6922,
      "Ġdepart": 6923,
      "}=": 6924,
      "arga": 6925,
      "actory": 6926,
      "DA": 6927,
      "Ġpull": 6928,
      "ĠíĻ": 6929,
      "ming": 6930,
      "Ġbasis": 6931,
      "chen": 6932,
      "Ġsolid": 6933,
      "æĿ¥çļĦ": 6934,
      "è¿ĩç¨ĭ": 6935,
      "åģľ": 6936,
      "Ġìĭľ": 6937,
      "âĢĺ": 6938,
      "Ġencour": 6939,
      "åľ°æĸ¹": 6940,
      "Ġborder": 6941,
      "Ġnumbers": 6942,
      "Lo": 6943,
      "åī¯": 6944,
      "ìĹħ": 6945,
      "Ġfunctions": 6946,
      "Ġthroughout": 6947,
      "han": 6948,
      "Ġtherefore": 6949,
      "å¯¹äºİ": 6950,
      "eles": 6951,
      "æİ¢": 6952,
      "¤ĳ": 6953,
      "Ġoptim": 6954,
      "ĠØ§ÙĦÙģ": 6955,
      "çľĭåĪ°": 6956,
      "struct": 6957,
      "Ġeasily": 6958,
      "Ġdegree": 6959,
      "Ġdin": 6960,
      "Ã¹": 6961,
      "à¤¾à¤": 6962,
      "Ġrules": 6963,
      "plit": 6964,
      "Ġcan't": 6965,
      "Ġuno": 6966,
      "ãģĪãģ¦": 6967,
      "Ġcop": 6968,
      "èĽ": 6969,
      "PA": 6970,
      "Ġdetermine": 6971,
      "Ġmode": 6972,
      "æł¹æį®": 6973,
      "ker": 6974,
      "icrosoft": 6975,
      "è¡£": 6976,
      "Ġsecret": 6977,
      "Ġwin": 6978,
      "Ġsolutions": 6979,
      "lambda": 6980,
      "52": 6981,
      "Ġlimited": 6982,
      ">ĊĊ": 6983,
      "Ġroad": 6984,
      "Ġmant": 6985,
      "Ġsolo": 6986,
      "{item": 6987,
      "èĥ½å¤Ł": 6988,
      "iber": 6989,
      "Ġtab": 6990,
      "Ġentr": 6991,
      "Ġball": 6992,
      "isiÃ³n": 6993,
      "éļľ": 6994,
      "Ġthinking": 6995,
      "Ġexperiment": 6996,
      "ql": 6997,
      "Ġsafety": 6998,
      "ï¼Įåı¯": 6999,
      "âĳ": 7000,
      "ìķĦ": 7001,
      "Ð²Ð¸": 7002,
      "Ġrob": 7003,
      "Ġrecommend": 7004,
      "TT": 7005,
      "æľĭåıĭ": 7006,
      "Ġofficial": 7007,
      "ãģ«ãģªãĤĭ": 7008,
      "ĠÙĩØ°": 7009,
      "Ġprojects": 7010,
      "Ġquickly": 7011,
      "Ġconnection": 7012,
      "ĠPublic": 7013,
      "éĿĻ": 7014,
      "éĺ¿": 7015,
      "ÃŃan": 7016,
      "åıĸãĤĬ": 7017,
      "{itemize": 7018,
      "];Ċ": 7019,
      "ĠNet": 7020,
      "ĠIndia": 7021,
      "Ġmachine": 7022,
      "Ġserious": 7023,
      "-pro": 7024,
      "åŃ£": 7025,
      "ĠHere": 7026,
      "Status": 7027,
      "');Ċ": 7028,
      "æĭ¬": 7029,
      "çĵ": 7030,
      "ende": 7031,
      "eless": 7032,
      "func": 7033,
      "Ġmeaning": 7034,
      "emp": 7035,
      "EO": 7036,
      "roy": 7037,
      "width": 7038,
      "Ġoffers": 7039,
      "Ġopportunity": 7040,
      "Ġemot": 7041,
      "aper": 7042,
      "arroll": 7043,
      "Ġfab": 7044,
      "iring": 7045,
      "ä½ľçĶ¨": 7046,
      "èªŀ": 7047,
      "êµŃ": 7048,
      "ãĥĹãĥŃ": 7049,
      "~~": 7050,
      "hat": 7051,
      "object": 7052,
      "bum": 7053,
      "Ġmonitor": 7054,
      "vement": 7055,
      "Ã³s": 7056,
      "aign": 7057,
      "Ġkar": 7058,
      "ãĤĪãģĨãģª": 7059,
      "Ġvent": 7060,
      "cite": 7061,
      "Ġscience": 7062,
      "Opt": 7063,
      "åĿļ": 7064,
      "iller": 7065,
      "íĻĶ": 7066,
      "Ġsometimes": 7067,
      "Ġvit": 7068,
      "Ġreflect": 7069,
      "Ġbasic": 7070,
      "ĠHist": 7071,
      "Ġnames": 7072,
      "Ġgives": 7073,
      "Ġfirm": 7074,
      "æ¥¼": 7075,
      "Ġsignal": 7076,
      "ĠID": 7077,
      "Ġexecut": 7078,
      "ĠasÃŃ": 7079,
      "ĠMad": 7080,
      "Ġcharg": 7081,
      "ĠMart": 7082,
      "ategor": 7083,
      "ĠÐŁ": 7084,
      "ĠFrom": 7085,
      "beta": 7086,
      "tee": 7087,
      "Ġlost": 7088,
      "ĠÑĢÐ°": 7089,
      "Ġrequirements": 7090,
      "çļĦãģª": 7091,
      "åį«": 7092,
      "è³ª": 7093,
      "Ġpredict": 7094,
      "onn": 7095,
      "Ġmargin": 7096,
      "Ø¨ÙĬ": 7097,
      "ĠOut": 7098,
      "urity": 7099,
      "èĭı": 7100,
      "æĤ£": 7101,
      "Ġspecies": 7102,
      "(&": 7103,
      "æĽ²": 7104,
      "ĠÑģÑĤ": 7105,
      "BC": 7106,
      "Ġproperties": 7107,
      "Ã¡l": 7108,
      "Ġbehavior": 7109,
      "ĠÑĤ": 7110,
      ".is": 7111,
      "Ġorganization": 7112,
      "âĢĻd": 7113,
      "ä½łçļĦ": 7114,
      "#include": 7115,
      "Ġincor": 7116,
      "ĠčĊ": 7117,
      "cias": 7118,
      "Ġdia": 7119,
      "Ġ/*": 7120,
      "çµĦ": 7121,
      "å®ŀçİ°": 7122,
      "ĠAssoci": 7123,
      "éĢ²": 7124,
      "ĠSur": 7125,
      "Ġmess": 7126,
      ".util": 7127,
      "(b": 7128,
      "æ±º": 7129,
      "Ġsaying": 7130,
      "æĦ¿": 7131,
      "Ġpul": 7132,
      ".ex": 7133,
      "enge": 7134,
      "Ġtrust": 7135,
      "Ġbur": 7136,
      "lor": 7137,
      "çĴ": 7138,
      "Ġrepl": 7139,
      "Ġdistribution": 7140,
      "Ġsleep": 7141,
      "Ġregul": 7142,
      "adding": 7143,
      "Ġfat": 7144,
      "ĠProf": 7145,
      "Ã§o": 7146,
      "Ġpolic": 7147,
      "cr": 7148,
      "ç½ĳç»ľ": 7149,
      "Ġtersebut": 7150,
      "Ġvict": 7151,
      "izes": 7152,
      "åİŁåĽł": 7153,
      "ï¼Įä»İ": 7154,
      "VID": 7155,
      "group": 7156,
      "issions": 7157,
      "Ġupdate": 7158,
      "omm": 7159,
      "ober": 7160,
      "ĠØĮ": 7161,
      "ĠOff": 7162,
      "Ġassum": 7163,
      "Ġorigin": 7164,
      "Ġknew": 7165,
      "ĠMod": 7166,
      "oe": 7167,
      "Ġ\\%$": 7168,
      "æĿ¾": 7169,
      "Size": 7170,
      "azon": 7171,
      "ãĤµãĥ¼ãĥ": 7172,
      "ĠOf": 7173,
      "pet": 7174,
      "800": 7175,
      "CR": 7176,
      "ÙĨØ§": 7177,
      "eno": 7178,
      "Ġdar": 7179,
      "Ass": 7180,
      "ersion": 7181,
      "rew": 7182,
      "orge": 7183,
      "ìłĦ": 7184,
      "ĠestÃ¡n": 7185,
      "Ġwoman": 7186,
      "inda": 7187,
      "åĿĹ": 7188,
      "iments": 7189,
      "Ġvos": 7190,
      "Ġobjet": 7191,
      "Ã¼r": 7192,
      "é¢Ŀ": 7193,
      "ÃŁ": 7194,
      "Ð»Ñı": 7195,
      "çĽĺ": 7196,
      "down": 7197,
      "è´§": 7198,
      "sm": 7199,
      "Ġresol": 7200,
      "Ġtask": 7201,
      "Ġassist": 7202,
      "Ġcustomer": 7203,
      "Ġmother": 7204,
      "Ġlooked": 7205,
      "Ġëı": 7206,
      "ÃŃst": 7207,
      "uster": 7208,
      "Ð¾ÑĤ": 7209,
      "gy": 7210,
      "Ġfight": 7211,
      "Ġanti": 7212,
      "éĢĢ": 7213,
      "Ġrele": 7214,
      "avig": 7215,
      "Ġcha": 7216,
      "Ã»": 7217,
      ".W": 7218,
      "åĬ¹": 7219,
      "{enumerate": 7220,
      "raf": 7221,
      "phi": 7222,
      "Ġsurv": 7223,
      "ĠPor": 7224,
      "Ġtiempo": 7225,
      "Ġdark": 7226,
      "Ġsect": 7227,
      "eder": 7228,
      "uciÃ³n": 7229,
      "æĩ": 7230,
      "ç¨®": 7231,
      "Ġthus": 7232,
      "MA": 7233,
      "enz": 7234,
      "Ġlebih": 7235,
      "å²ģ": 7236,
      "Ġsteps": 7237,
      "Ġmere": 7238,
      "map": 7239,
      ".pro": 7240,
      "ãĢĤæĪĳ": 7241,
      "ĠlÃŃ": 7242,
      "ĠUnivers": 7243,
      "åºŃ": 7244,
      "ologies": 7245,
      "íĥ": 7246,
      "Ġtent": 7247,
      "è¯ī": 7248,
      "clos": 7249,
      "ĠDan": 7250,
      "éĻĪ": 7251,
      "ĠSu": 7252,
      "íļĮ": 7253,
      "Ġuseful": 7254,
      "Ġexpert": 7255,
      "Ġhol": 7256,
      "51": 7257,
      "Ġuns": 7258,
      "Los": 7259,
      "_i": 7260,
      "æĿ¡ä»¶": 7261,
      "mathbb": 7262,
      "Ġfilter": 7263,
      "Ġtherap": 7264,
      "Ġ.Ċ": 7265,
      "ä¸ĥ": 7266,
      "åįł": 7267,
      "å®¡": 7268,
      "ç¥¨": 7269,
      "Ġconstruct": 7270,
      "ĠØµ": 7271,
      "ĠĠĠĠĠĠĠĠĠĠĠĠĠĠĠĠĠ": 7272,
      "parent": 7273,
      "Ġboard": 7274,
      "æ´Ĺ": 7275,
      "ancy": 7276,
      "åĵĪ": 7277,
      "Ġoccur": 7278,
      "orial": 7279,
      "ĠÃ©l": 7280,
      "Ġchoice": 7281,
      "Ġstock": 7282,
      "Ġaplic": 7283,
      "Ġclients": 7284,
      "ĠFirst": 7285,
      "Ø§Øµ": 7286,
      "ÙĬØ³": 7287,
      "é½": 7288,
      "Ag": 7289,
      "ormal": 7290,
      "æĻº": 7291,
      "Ġperformed": 7292,
      "çĩ": 7293,
      "omas": 7294,
      "Ġswitch": 7295,
      "Ġcharge": 7296,
      "åĳ¼": 7297,
      "lem": 7298,
      "Ġinsurance": 7299,
      "ĠsÃ£o": 7300,
      "ØŃØ¯": 7301,
      "Gener": 7302,
      "etes": 7303,
      "å®Ī": 7304,
      "Ġmental": 7305,
      "Builder": 7306,
      "è¿Ļä¹Ī": 7307,
      "ì£¼": 7308,
      "ãģ§ãģįãģ¾ãģĻ": 7309,
      "?ĊĊ": 7310,
      "Ġoperation": 7311,
      "Ġhit": 7312,
      "ĠGovern": 7313,
      "æĽ¾": 7314,
      "ĠApril": 7315,
      "Ø±ÙĪ": 7316,
      "illing": 7317,
      "ä¸¤ä¸ª": 7318,
      "Ġoblig": 7319,
      "field": 7320,
      "ĠpolÃŃt": 7321,
      "åĮĹäº¬": 7322,
      "esso": 7323,
      "rief": 7324,
      "Ñĺ": 7325,
      "Ġupd": 7326,
      "works": 7327,
      "çļĦè¯Ŀ": 7328,
      "pected": 7329,
      "ÙĤØ¯": 7330,
      "eph": 7331,
      "Ġsold": 7332,
      "Ġled": 7333,
      "æĿĢ": 7334,
      "è¡¥": 7335,
      "acebook": 7336,
      "ĠCap": 7337,
      "Ġhospital": 7338,
      "ãģ¨ãģ¯": 7339,
      "åģ¥åº·": 7340,
      "inar": 7341,
      "Ġcir": 7342,
      "enu": 7343,
      "Entity": 7344,
      "çŀ": 7345,
      "Ġsafe": 7346,
      "orte": 7347,
      "iforn": 7348,
      "éħ¸": 7349,
      "Ġtous": 7350,
      "_B": 7351,
      "Param": 7352,
      "ãģ§ãģĤãĤĭ": 7353,
      "ĠAng": 7354,
      "å·´": 7355,
      "ĠLaw": 7356,
      "è¬": 7357,
      "Ġappropriate": 7358,
      "Ġbrain": 7359,
      "Ġtempor": 7360,
      "íĬ¸": 7361,
      "Sc": 7362,
      "ï¼Įè®©": 7363,
      "Ġpartir": 7364,
      "Ġmillones": 7365,
      "Ġllev": 7366,
      "Ã³g": 7367,
      "ãĥĦ": 7368,
      "Ġrates": 7369,
      "Array": 7370,
      "iation": 7371,
      "ĠLond": 7372,
      "Ġba": 7373,
      "LO": 7374,
      "Ġdefinit": 7375,
      "ĠUp": 7376,
      "iable": 7377,
      "Ġmenjadi": 7378,
      "Ġfuer": 7379,
      "ãģķãģĽ": 7380,
      "ĠØ§ÙĦØªÙĬ": 7381,
      "ione": 7382,
      "berg": 7383,
      "hood": 7384,
      "Ġpela": 7385,
      "Ã¨me": 7386,
      "Ġhid": 7387,
      "ĠJune": 7388,
      "ç£": 7389,
      "Ġsac": 7390,
      "ãĥ©ãĥ³": 7391,
      "Ġdynam": 7392,
      "Ġcontains": 7393,
      "/p": 7394,
      "ãģĻãĤĭãģĵãģ¨": 7395,
      "bal": 7396,
      "Ġsample": 7397,
      "åŁİå¸Ĥ": 7398,
      "äºĭæĥħ": 7399,
      "ĠCr": 7400,
      "ĠEsp": 7401,
      "Ġvisual": 7402,
      "Ġsites": 7403,
      "antage": 7404,
      "èıľ": 7405,
      "ilter": 7406,
      "ĠdÃŃa": 7407,
      "æľĢåĲİ": 7408,
      "ä¹Ŀ": 7409,
      "ords": 7410,
      "Ġheat": 7411,
      "Ġproduce": 7412,
      "ãģķãĤĮãģŁ": 7413,
      "ĠSub": 7414,
      "Go": 7415,
      "çºª": 7416,
      "udo": 7417,
      "è¿ĺæľī": 7418,
      "Ġconoc": 7419,
      "Ġformer": 7420,
      "å¤ı": 7421,
      "Ġgrup": 7422,
      "ech": 7423,
      "Ġparticularly": 7424,
      "ç«Ł": 7425,
      "uÃ©s": 7426,
      ".H": 7427,
      "Por": 7428,
      "ounter": 7429,
      "çĶļ": 7430,
      "ĠOF": 7431,
      "ATION": 7432,
      "Ġ(!": 7433,
      "ners": 7434,
      "max": 7435,
      "æ¦Ĥ": 7436,
      "ilos": 7437,
      "icios": 7438,
      "ky": 7439,
      "Ġleading": 7440,
      "åĽłæŃ¤": 7441,
      "Ġstage": 7442,
      "Ãºs": 7443,
      "Ġsang": 7444,
      "Act": 7445,
      "å¤ĦçĲĨ": 7446,
      "ãĤĵãģ§": 7447,
      "sec": 7448,
      "ãģķãĤĮãĤĭ": 7449,
      "Ð¾Ð²Ð°": 7450,
      "ULL": 7451,
      "anj": 7452,
      "è¿Ķ": 7453,
      "Ġstra": 7454,
      "Ġadministr": 7455,
      "æħ¢": 7456,
      "Ġhelps": 7457,
      "Ġmenos": 7458,
      "ä»·æł¼": 7459,
      "ĠserÃ¡": 7460,
      "RI": 7461,
      "Ġtah": 7462,
      "ĠBank": 7463,
      "ibles": 7464,
      "Ð²Ð¾": 7465,
      "éģĩ": 7466,
      "Ġcompletely": 7467,
      "èĳĹ": 7468,
      "Ġrecently": 7469,
      "Ġotros": 7470,
      "ç§ĳåŃ¦": 7471,
      "ãĢĤâĢľ": 7472,
      "ĠgÃ©n": 7473,
      "ìĻĢ": 7474,
      "Ġtan": 7475,
      "ãĢĤè¿Ļ": 7476,
      "Client": 7477,
      "Ġign": 7478,
      "Manager": 7479,
      "ĠMal": 7480,
      "ague": 7481,
      "ython": 7482,
      "Ġdead": 7483,
      "enas": 7484,
      "ael": 7485,
      "aÃ§Ãµes": 7486,
      "è°¢": 7487,
      "ä»¥åıĬ": 7488,
      "Ġsido": 7489,
      "ĠÐĴ": 7490,
      "à¸": 7491,
      "Ġsales": 7492,
      "éķĩ": 7493,
      "Ġworked": 7494,
      "Ġcontribut": 7495,
      "53": 7496,
      "ensions": 7497,
      "Ġrequires": 7498,
      "ĠPresident": 7499,
      "Ġdescription": 7500,
      "Ġprime": 7501,
      "Ġradi": 7502,
      "ãģĹãģĭ": 7503,
      "Ġcamb": 7504,
      "èĵ": 7505,
      "ï¼ĵ": 7506,
      "////////": 7507,
      "Ġproviding": 7508,
      "âĶĢ": 7509,
      "Ġwhose": 7510,
      "Ġfair": 7511,
      "Ġvariety": 7512,
      "hia": 7513,
      "Ã±os": 7514,
      "Ġexpos": 7515,
      "sequ": 7516,
      "250": 7517,
      "gun": 7518,
      "anda": 7519,
      "ository": 7520,
      "Ø¤": 7521,
      "mark": 7522,
      "emat": 7523,
      "Ã´t": 7524,
      "Ġheard": 7525,
      "ests": 7526,
      "Ġ^": 7527,
      "Aut": 7528,
      "mitted": 7529,
      "ĠKing": 7530,
      "kin": 7531,
      "Ġrandom": 7532,
      "Ġscale": 7533,
      "rav": 7534,
      "åįķä½į": 7535,
      "Ġgoes": 7536,
      "ĠFeb": 7537,
      "ĠØ§ÙĦØ®": 7538,
      "éģĭ": 7539,
      "agram": 7540,
      "å®£": 7541,
      "clusion": 7542,
      "odo": 7543,
      "Ø¹Ø©": 7544,
      "Ġconstruction": 7545,
      "äº¿": 7546,
      "Ġgenerally": 7547,
      "Ġstru": 7548,
      "aÃ±a": 7549,
      "ãĢĤä½Ĩ": 7550,
      "Ġdent": 7551,
      "Ġclick": 7552,
      "arter": 7553,
      "180": 7554,
      ">(": 7555,
      "aman": 7556,
      "Ġpromot": 7557,
      "flow": 7558,
      "Ġrule": 7559,
      "ellig": 7560,
      "attle": 7561,
      "åħ¨åĽ½": 7562,
      "Ġdistance": 7563,
      "Ġmerc": 7564,
      ";\"": 7565,
      "check": 7566,
      "ĠrÃ©g": 7567,
      "Ġnor": 7568,
      "args": 7569,
      "Ġthrow": 7570,
      "Ġroll": 7571,
      "Ġgave": 7572,
      "link": 7573,
      "Ġexisting": 7574,
      "ç»ĵæŀľ": 7575,
      "ĠTw": 7576,
      "Es": 7577,
      "Ġcritical": 7578,
      "Property": 7579,
      "ĠHigh": 7580,
      "ĠÅ": 7581,
      "ny": 7582,
      "ĠSpe": 7583,
      "icult": 7584,
      "íĦ": 7585,
      "Ġlie": 7586,
      "æĢķ": 7587,
      "ĠId": 7588,
      "Ġdont": 7589,
      "Ġtanto": 7590,
      "Ġfine": 7591,
      "ige": 7592,
      "ãĤ¤ãĥ«": 7593,
      "Ġalone": 7594,
      "Ġlabel": 7595,
      "Ġ{ĊĊ": 7596,
      "å®ĮæĪĲ": 7597,
      "ĠDist": 7598,
      "Ġcivil": 7599,
      "CO": 7600,
      "Ġresource": 7601,
      "vider": 7602,
      "ï¼Įä¸º": 7603,
      "Si": 7604,
      "ÙĥÙĨ": 7605,
      "Ġgoal": 7606,
      "ymbol": 7607,
      "å½©": 7608,
      "Ġmomento": 7609,
      "ĠRel": 7610,
      "ï¼Įå¦Ĥæŀľ": 7611,
      "ĠDem": 7612,
      "-D": 7613,
      "eler": 7614,
      "ĠMor": 7615,
      "ãģªãĤī": 7616,
      "Ġreve": 7617,
      "Ġfactor": 7618,
      "atabase": 7619,
      "Ġactions": 7620,
      "çĶ±äºİ": 7621,
      "Ġemployees": 7622,
      "Ġrespond": 7623,
      "default": 7624,
      "Ġcorpor": 7625,
      "ateur": 7626,
      "umin": 7627,
      "har": 7628,
      "96": 7629,
      "çĸĳ": 7630,
      "Ġhighly": 7631,
      "ruit": 7632,
      "Ġhear": 7633,
      "_data": 7634,
      "è¡ĵ": 7635,
      "Ġprotection": 7636,
      "Ġdiscover": 7637,
      "Ġstatement": 7638,
      "ĠSocial": 7639,
      "Ġë¬": 7640,
      "Ġenh": 7641,
      "prime": 7642,
      "ĠsÃ³": 7643,
      "çľĮ": 7644,
      "mi": 7645,
      "Ġprev": 7646,
      "Ġextrem": 7647,
      "times": 7648,
      "Ġpoder": 7649,
      "Ġvolume": 7650,
      "App": 7651,
      "Ġ}^{": 7652,
      "Ġguid": 7653,
      "ãĢģĊ": 7654,
      "anyak": 7655,
      "Ġsupply": 7656,
      "æ¯ķ": 7657,
      "ĠÃī": 7658,
      "Ġ===": 7659,
      "fa": 7660,
      "è°ģ": 7661,
      "Ġcart": 7662,
      "Ġlibr": 7663,
      "rael": 7664,
      "Ġthreat": 7665,
      "Ġfederal": 7666,
      "Ġparent": 7667,
      "Ġdrive": 7668,
      "å¥Ĺ": 7669,
      "TH": 7670,
      "ĠĠĠĠĊ": 7671,
      "fs": 7672,
      "åģĩ": 7673,
      "æİ§åĪ¶": 7674,
      "ancia": 7675,
      "Ġviv": 7676,
      "è¡Įä¸ļ": 7677,
      "Ġkids": 7678,
      "åĨ²": 7679,
      "Ġoffic": 7680,
      "Ġproy": 7681,
      "Ġsan": 7682,
      "Ġcomponent": 7683,
      "Ġessential": 7684,
      "ĠRem": 7685,
      "86": 7686,
      "Ġê·¸": 7687,
      "Ġlui": 7688,
      "Ġsell": 7689,
      "ilon": 7690,
      "æĦŁè§ī": 7691,
      "Ġfu": 7692,
      "Ġnovel": 7693,
      "Ġpages": 7694,
      "Ġplans": 7695,
      "ki": 7696,
      "iency": 7697,
      "ĠApp": 7698,
      "ĠJesus": 7699,
      "åħµ": 7700,
      "grad": 7701,
      "Ġearl": 7702,
      "Ä±": 7703,
      "Ġprocessing": 7704,
      "SP": 7705,
      "ãĤ¹ãĥĨ": 7706,
      "Ġvoice": 7707,
      "ovid": 7708,
      "è£½": 7709,
      "Ġwish": 7710,
      "Ġvie": 7711,
      "atically": 7712,
      "54": 7713,
      "FA": 7714,
      "ĠAugust": 7715,
      "unci": 7716,
      "é¢ĳ": 7717,
      "Category": 7718,
      "emplate": 7719,
      "format": 7720,
      "ĠMet": 7721,
      "Ġcareer": 7722,
      "Ġhop": 7723,
      "Ġroot": 7724,
      "Ġphone": 7725,
      "Ġrecon": 7726,
      "æĶ»": 7727,
      "annya": 7728,
      "Ġparameters": 7729,
      "asion": 7730,
      "len": 7731,
      "Ġcollabor": 7732,
      "Ġthat's": 7733,
      "ìĬµ": 7734,
      "ogen": 7735,
      "Ġpoor": 7736,
      ",ĊĊ": 7737,
      "char": 7738,
      "æĬĹ": 7739,
      "pective": 7740,
      "Ġcat": 7741,
      "ä¹Łä¸į": 7742,
      "ĠMac": 7743,
      "ĠIns": 7744,
      "Ġíķľ": 7745,
      "ãģ®ãģĭ": 7746,
      "under": 7747,
      "Ġturned": 7748,
      "ÙĬØ§": 7749,
      "Ġlayer": 7750,
      "ãĢįãģ¨": 7751,
      "ĠHouse": 7752,
      "ĠMo": 7753,
      "Ġwide": 7754,
      "Ø¹ÙĦ": 7755,
      "Ġdevices": 7756,
      "ĠSeptember": 7757,
      "ç¡Ģ": 7758,
      "Ġpresidente": 7759,
      "\\_": 7760,
      "-year": 7761,
      "Ġcool": 7762,
      "ĠBel": 7763,
      "Ġmarch": 7764,
      "Ġ..": 7765,
      "Ġquien": 7766,
      "Ġcreating": 7767,
      "MP": 7768,
      "Comm": 7769,
      "ĠTHE": 7770,
      "Ġkep": 7771,
      "Ġq": 7772,
      "unes": 7773,
      "Ġmyself": 7774,
      "ATE": 7775,
      "Ġtown": 7776,
      "ÙħØ©": 7777,
      "ifornia": 7778,
      "æ¸¯": 7779,
      "iant": 7780,
      "çĻĤ": 7781,
      "éĥ¨éĹ¨": 7782,
      "åŁºç¡Ģ": 7783,
      "jer": 7784,
      "Ġquel": 7785,
      "Ġtechniques": 7786,
      "87": 7787,
      "éĵģ": 7788,
      "Ġìļ": 7789,
      "ãģĮãģĤãĤĬãģ¾ãģĻ": 7790,
      "Ġtrial": 7791,
      "cles": 7792,
      "Ġrout": 7793,
      "ëıĻ": 7794,
      "[\"": 7795,
      "Ġax": 7796,
      "quad": 7797,
      "Ġallowed": 7798,
      "isl": 7799,
      "åħ·æľī": 7800,
      "åĽ½éĻħ": 7801,
      "Ġinternet": 7802,
      "Ġargument": 7803,
      "ëħĦ": 7804,
      "å¿ħé¡»": 7805,
      "iden": 7806,
      "ESS": 7807,
      "ĠJapan": 7808,
      "{align": 7809,
      "yr": 7810,
      "Ġdaily": 7811,
      "isc": 7812,
      "Ġapplied": 7813,
      "ĠUK": 7814,
      "ãĤĥ": 7815,
      "Ġobtained": 7816,
      "Ġbool": 7817,
      "Ġstrategy": 7818,
      "Ġutiliz": 7819,
      "Ġminist": 7820,
      "Ġelle": 7821,
      "este": 7822,
      "æłĩåĩĨ": 7823,
      "Ġtheory": 7824,
      "dd": 7825,
      "ä¸´": 7826,
      "Ġdirector": 7827,
      "ulf": 7828,
      "åĿĲ": 7829,
      "Ġsympt": 7830,
      "110": 7831,
      "aled": 7832,
      "FIG": 7833,
      "si": 7834,
      "ãĥķãĤ¡": 7835,
      "åĪ¶åº¦": 7836,
      "ä»¥ä¸ĭ": 7837,
      "Ġtrat": 7838,
      "å°Ħ": 7839,
      "åī§": 7840,
      "Ġchance": 7841,
      "Ġvert": 7842,
      "Ġfather": 7843,
      "ä¸Ģä¸ĭ": 7844,
      "ĠBras": 7845,
      "Ñį": 7846,
      "true": 7847,
      "ĠDevelop": 7848,
      "Ġscreen": 7849,
      "Ġconserv": 7850,
      "osa": 7851,
      "Ġpodr": 7852,
      "Ġgreen": 7853,
      "Ġcommunic": 7854,
      "plies": 7855,
      "Ġinstr": 7856,
      "Ġsched": 7857,
      "Ġchanged": 7858,
      "åı¶": 7859,
      "Ġdispon": 7860,
      ".[": 7861,
      "Ġapro": 7862,
      "Ġnas": 7863,
      "ÙģÙĬ": 7864,
      "Ġawait": 7865,
      "Ġestablish": 7866,
      "ĠProject": 7867,
      "ãģıãģª": 7868,
      "elete": 7869,
      "Ġpermit": 7870,
      "Ġimportante": 7871,
      "æİĪ": 7872,
      "Ġsociety": 7873,
      "ĠPark": 7874,
      "ä¸Ģèµ·": 7875,
      "Ġele": 7876,
      "ĠKe": 7877,
      "çİī": 7878,
      "rich": 7879,
      "Ġearn": 7880,
      "Per": 7881,
      "Ġenf": 7882,
      "mar": 7883,
      "los": 7884,
      "ç»ĥ": 7885,
      "Ġfully": 7886,
      "band": 7887,
      "Ġregister": 7888,
      "She": 7889,
      "Ġfaz": 7890,
      "Ð¼Ð°": 7891,
      "\\left": 7892,
      "Ġready": 7893,
      "íķĺê³ł": 7894,
      "Ġreserv": 7895,
      "known": 7896,
      "rir": 7897,
      "æĺł": 7898,
      "ĠEuropean": 7899,
      "ĠService": 7900,
      "Ġbah": 7901,
      "ĠBlack": 7902,
      "cdot": 7903,
      "Ġcatch": 7904,
      "æ¶²": 7905,
      "Ġadopt": 7906,
      "Ġinterface": 7907,
      "Ĩµ": 7908,
      "ĠCounty": 7909,
      "Ġgrande": 7910,
      "æ¯Ĵ": 7911,
      "Ġsetting": 7912,
      "omin": 7913,
      "Ġinterview": 7914,
      "Ġoleh": 7915,
      "ani": 7916,
      "Ġcouple": 7917,
      "context": 7918,
      "iana": 7919,
      "Ġnotre": 7920,
      "Ġsuccessful": 7921,
      "ĠGroup": 7922,
      "}$.": 7923,
      "mult": 7924,
      "Ġbaj": 7925,
      "ĠArm": 7926,
      "uat": 7927,
      "Ð¡": 7928,
      "å®Įåħ¨": 7929,
      "Ġhous": 7930,
      "Ġrelease": 7931,
      "ĠJuly": 7932,
      "æĶ¯æĮģ": 7933,
      "level": 7934,
      "ford": 7935,
      "Ġinvestment": 7936,
      "Ġswe": 7937,
      "Ġincome": 7938,
      "Ġciudad": 7939,
      "akukan": 7940,
      "Ġbroad": 7941,
      "åĪ¥": 7942,
      "Ġton": 7943,
      "eds": 7944,
      "Ġgets": 7945,
      "éĽ¨": 7946,
      "ĠVol": 7947,
      "ĠØ§ÙĦØµ": 7948,
      "ientos": 7949,
      "Ġfarm": 7950,
      "Equal": 7951,
      "åĬŁèĥ½": 7952,
      "Ġtor": 7953,
      "Ġmid": 7954,
      "Ret": 7955,
      "Ġselected": 7956,
      "Ġprocesses": 7957,
      "æ¤ľ": 7958,
      "åħ¸": 7959,
      "ĠInternet": 7960,
      "Ġbenefit": 7961,
      "Ġconvert": 7962,
      "}{\\": 7963,
      "éĹ»": 7964,
      "ĠDavid": 7965,
      "åĪĺ": 7966,
      "gest": 7967,
      "-re": 7968,
      "Ġrepe": 7969,
      "ĠÃ©gal": 7970,
      "Ġhealthy": 7971,
      "æ´¾": 7972,
      "Ð´Ð¸": 7973,
      "Ġencontr": 7974,
      "ienen": 7975,
      "Ġëĵ±": 7976,
      "(a": 7977,
      "Ġsources": 7978,
      "æķ£": 7979,
      "ypes": 7980,
      "ãĤŃãĥ£": 7981,
      "request": 7982,
      "ĠSel": 7983,
      "å´": 7984,
      "ä»Ĭå¹´": 7985,
      "Ġgames": 7986,
      "aka": 7987,
      "ĠTer": 7988,
      "Ġbrand": 7989,
      "éĤ£ä¹Ī": 7990,
      "icol": 7991,
      "Ġantes": 7992,
      "Ġpens": 7993,
      "ĠCollege": 7994,
      "plo": 7995,
      "loat": 7996,
      "åª": 7997,
      "Ġrow": 7998,
      "Ġkita": 7999,
      "Ġnumer": 8000,
      "ĠOb": 8001,
      "çļĦãģ«": 8002,
      "onesia": 8003,
      "$ĊĊ": 8004,
      "çľŁçļĦ": 8005,
      "CL": 8006,
      "Ġmobile": 8007,
      "âĢ»": 8008,
      "Input": 8009,
      "tex": 8010,
      "Ġtrade": 8011,
      "TO": 8012,
      "eurs": 8013,
      "ãĢģãģĿãģ®": 8014,
      "vas": 8015,
      "ãĤıãģĽ": 8016,
      "Ã¥": 8017,
      "inas": 8018,
      "EE": 8019,
      "Ġfal": 8020,
      "ï¼ĮåĽłä¸º": 8021,
      "Ġol": 8022,
      "rote": 8023,
      "ä¸įè¿ĩ": 8024,
      "Ġrelevant": 8025,
      "è°Ī": 8026,
      "ĠPost": 8027,
      "Ġpu": 8028,
      "ĠBen": 8029,
      "Ġdispos": 8030,
      "ĠJanuary": 8031,
      "ï¼ŁâĢĿ": 8032,
      "Me": 8033,
      "Ġsong": 8034,
      "-F": 8035,
      "ibly": 8036,
      "aten": 8037,
      "Ġgrowing": 8038,
      "outer": 8039,
      "erta": 8040,
      "å¹ħ": 8041,
      "iga": 8042,
      "ãģĭãģ£ãģŁ": 8043,
      "Ġalgun": 8044,
      "åĽº": 8045,
      "ãģĭãĤĬ": 8046,
      "Ġboy": 8047,
      "Ġharm": 8048,
      "oca": 8049,
      "Ġbey": 8050,
      "Ġequipment": 8051,
      "Ġdit": 8052,
      "Ġpert": 8053,
      "Ġbrought": 8054,
      "akt": 8055,
      "ĠBro": 8056,
      "hora": 8057,
      "Ġinternal": 8058,
      "Ġmai": 8059,
      "ãĤģãģ¦": 8060,
      "Ġstarting": 8061,
      "Ġdesarroll": 8062,
      "éģİ": 8063,
      "Ġlaunch": 8064,
      "Sel": 8065,
      "Ġexactly": 8066,
      "sup": 8067,
      "Ġneigh": 8068,
      "Ġconstru": 8069,
      "ãģĹãģ¾ãģĹãģŁ": 8070,
      "æŁ»": 8071,
      "TA": 8072,
      "æ¹ĸ": 8073,
      "æľīéĻĲ": 8074,
      "Ġpil": 8075,
      "Part": 8076,
      "Ġprotected": 8077,
      "eting": 8078,
      "ls": 8079,
      "Ġbeyond": 8080,
      "ãģ²": 8081,
      "zen": 8082,
      "Ġë³´": 8083,
      "Ġtests": 8084,
      "Ġlugar": 8085,
      "tras": 8086,
      "åĽ½åĨħ": 8087,
      "They": 8088,
      "itud": 8089,
      "Ġcomponents": 8090,
      "{fig": 8091,
      "Ġpolice": 8092,
      "ĠFe": 8093,
      "Ġnegative": 8094,
      "Ġreasons": 8095,
      ".Get": 8096,
      "Ġspirit": 8097,
      "Ġforms": 8098,
      "ĠUN": 8099,
      "ãĥ¼ãĤ¯": 8100,
      "ìļĶ": 8101,
      "éľ²": 8102,
      "{H": 8103,
      "è§£åĨ³": 8104,
      "mt": 8105,
      "Ġmeeting": 8106,
      "ç´¹": 8107,
      "Ġcarry": 8108,
      "?\"": 8109,
      "Ġpresident": 8110,
      "íĸĪëĭ¤": 8111,
      "ä¸ľè¥¿": 8112,
      "zer": 8113,
      "Ġaj": 8114,
      "emble": 8115,
      "ĠBook": 8116,
      "Ġinteresting": 8117,
      "acement": 8118,
      "ãĤĭãģ¨": 8119,
      "èµĦæºĲ": 8120,
      "Ġsek": 8121,
      "aby": 8122,
      "åĩºäºĨ": 8123,
      "Ġanaly": 8124,
      "Ġmunicip": 8125,
      "Ãºmer": 8126,
      "Ġven": 8127,
      "ĠEr": 8128,
      "Ġoverall": 8129,
      "Ġmovement": 8130,
      "Ġesper": 8131,
      "Ġsuffer": 8132,
      "orning": 8133,
      "ç¨³": 8134,
      "Ġgiving": 8135,
      "BS": 8136,
      "Ġoperations": 8137,
      "Ġ==Ċ": 8138,
      "-L": 8139,
      "Ġtree": 8140,
      "rait": 8141,
      "Repository": 8142,
      "ç²¾ç¥ŀ": 8143,
      "åĢŁ": 8144,
      "å¹¸": 8145,
      "BA": 8146,
      "ĠØ§ÙĦØ±": 8147,
      "ĠWork": 8148,
      "ĠÃ©galement": 8149,
      "Ġguide": 8150,
      "}_": 8151,
      "Ġ?Ċ": 8152,
      "Ġestablished": 8153,
      "ãĥªãĤ¢": 8154,
      "hes": 8155,
      "Ġlooks": 8156,
      "Ġhappen": 8157,
      "Ġphase": 8158,
      "enty": 8159,
      "Ġsun": 8160,
      "Ġbeginning": 8161,
      "Ġban": 8162,
      "åĮħæĭ¬": 8163,
      "Ġtodas": 8164,
      "UE": 8165,
      "Ġhace": 8166,
      "ãģªãģĮ": 8167,
      "ertain": 8168,
      "å§Ĳ": 8169,
      "olds": 8170,
      "Ġelectric": 8171,
      "state": 8172,
      "Ġprotein": 8173,
      "ĠScience": 8174,
      "contain": 8175,
      "Ġplaces": 8176,
      "Ġdamage": 8177,
      "Ġtried": 8178,
      "êµ¬": 8179,
      "ĠMost": 8180,
      "ÙĦØ©": 8181,
      "åĵ¥": 8182,
      "{m": 8183,
      "ÑĩÐµ": 8184,
      "æłĳ": 8185,
      "gi": 8186,
      "fol": 8187,
      "Ġstorage": 8188,
      "ä¹ĭéĹ´": 8189,
      "ĠcÃ³": 8190,
      "èįī": 8191,
      "Ġtesting": 8192,
      "ĠØ§ÙĦÙĥ": 8193,
      "PU": 8194,
      "Element": 8195,
      "inct": 8196,
      "iful": 8197,
      "ÙĤØ©": 8198,
      "Ġcelebr": 8199,
      "è¯į": 8200,
      "title": 8201,
      "quer": 8202,
      "ØªØ±": 8203,
      "æĪĲåĬŁ": 8204,
      "ì°": 8205,
      "Ġìłķ": 8206,
      "åĽ°": 8207,
      "ç´¹ä»ĭ": 8208,
      "è¸": 8209,
      "åºĥ": 8210,
      "ĠCompany": 8211,
      "Ġcore": 8212,
      "Sch": 8213,
      "ãģ§ãģĹãĤĩãģĨ": 8214,
      "Ġtraditional": 8215,
      "ĠFacebook": 8216,
      "Ġ});Ċ": 8217,
      "Ġschools": 8218,
      "Ġrom": 8219,
      "ãģįãģ¾ãģĻ": 8220,
      "rench": 8221,
      "ĠìķĦ": 8222,
      "äºĨè§£": 8223,
      "Ġli": 8224,
      "å¾ģ": 8225,
      "æ±ī": 8226,
      "íĦ°": 8227,
      "èĦ±": 8228,
      "é¡¾": 8229,
      "ï¼Įè¦ģ": 8230,
      "éª¨": 8231,
      "Ġacid": 8232,
      "iano": 8233,
      "ĠÐ¿Ð¾": 8234,
      "ë¬¸": 8235,
      "Ġequal": 8236,
      "ĠUse": 8237,
      "izaciÃ³n": 8238,
      "ĠAir": 8239,
      "Ġmath": 8240,
      "Ġmand": 8241,
      "Ġdisp": 8242,
      "åħ°": 8243,
      "ĠI've": 8244,
      "ashington": 8245,
      "Ġeth": 8246,
      "Ġtras": 8247,
      "ĠAlso": 8248,
      "ä¸įè¦ģ": 8249,
      "Ġnotice": 8250,
      "Ġìłľ": 8251,
      "sum": 8252,
      "Source": 8253,
      "Ġaument": 8254,
      "ĠCalifornia": 8255,
      "Ġembod": 8256,
      "Ġmaybe": 8257,
      "Ġadjust": 8258,
      "aly": 8259,
      "Override": 8260,
      "ĠParis": 8261,
      "ĠBusiness": 8262,
      "yar": 8263,
      "Ġperman": 8264,
      "icip": 8265,
      "ãģĳãģ¦": 8266,
      "Ġpandem": 8267,
      "ä»»ä½ķ": 8268,
      "Ġfond": 8269,
      "ç©¿": 8270,
      "Ġpresented": 8271,
      "é¡µ": 8272,
      "Ġfigure": 8273,
      "Ġremain": 8274,
      "è¡Ĺ": 8275,
      "theta": 8276,
      "anged": 8277,
      "Ġpoly": 8278,
      "èģ·": 8279,
      "Ġfundament": 8280,
      "iri": 8281,
      "Ġlarger": 8282,
      "Ġfollowed": 8283,
      "CA": 8284,
      "Ġrapid": 8285,
      "ãģĭãģª": 8286,
      "-A": 8287,
      ".'": 8288,
      "ĠCanada": 8289,
      "uego": 8290,
      "Ġmaximum": 8291,
      "Group": 8292,
      "Ġalthough": 8293,
      "json": 8294,
      "çŁ¥è¯Ĩ": 8295,
      "Ĥ°": 8296,
      "Ġfear": 8297,
      "ĠClass": 8298,
      "Ġstream": 8299,
      "-R": 8300,
      "encias": 8301,
      "ĠNovember": 8302,
      "Ġspeak": 8303,
      "72": 8304,
      "jar": 8305,
      "input": 8306,
      "kat": 8307,
      "CD": 8308,
      "SA": 8309,
      "Sub": 8310,
      "å¼Ģåıĳ": 8311,
      "lying": 8312,
      "ÑģÑĤÐ¸": 8313,
      "Ġhair": 8314,
      "ĠAnt": 8315,
      "Ġíĺ": 8316,
      "Ġìĸ": 8317,
      "ĠØ·": 8318,
      "é¡º": 8319,
      "Ġtipo": 8320,
      "åĸ¶": 8321,
      "Str": 8322,
      "Ġspread": 8323,
      "Ġhandle": 8324,
      "è¿ĻéĩĮ": 8325,
      "æ®ĭ": 8326,
      "Ġampl": 8327,
      "éĮ": 8328,
      "arian": 8329,
      "æĹ¢": 8330,
      "ãĥĩãĤ£": 8331,
      "ĠEven": 8332,
      "Ġmoving": 8333,
      "eness": 8334,
      "ä¹¡": 8335,
      "ulated": 8336,
      "_w": 8337,
      "Pre": 8338,
      "Ġpaid": 8339,
      "Ġmotor": 8340,
      "Ġcast": 8341,
      "ĠÐļ": 8342,
      "éĺ¶": 8343,
      "amily": 8344,
      "Ġsmart": 8345,
      "Ġfam": 8346,
      "ECT": 8347,
      "åİĤ": 8348,
      "Ġlaws": 8349,
      "'une": 8350,
      "%Ċ": 8351,
      "Ġiniti": 8352,
      "ĠØ§ÙĦØ°": 8353,
      "Ġplanning": 8354,
      "Ġremove": 8355,
      "Ġalgorith": 8356,
      "Ġdern": 8357,
      "())": 8358,
      "Ġfeeling": 8359,
      "ä¿ĥ": 8360,
      "éĿł": 8361,
      "Ġtemps": 8362,
      "Ġmount": 8363,
      "Ġfields": 8364,
      "uras": 8365,
      "Ġwindow": 8366,
      "Ġ[Ċ": 8367,
      "Ġclaims": 8368,
      "Ġplayer": 8369,
      "TER": 8370,
      "ĠOctober": 8371,
      "Ġcup": 8372,
      "Sup": 8373,
      "Ġgold": 8374,
      "Ġmismo": 8375,
      "Ġpare": 8376,
      "_output": 8377,
      "Ġannoun": 8378,
      "Ġmiddle": 8379,
      "76": 8380,
      "ialog": 8381,
      "ander": 8382,
      "idge": 8383,
      "ãģ®ãģĮ": 8384,
      "Ġgard": 8385,
      "quier": 8386,
      "ĠLic": 8387,
      "After": 8388,
      "%,": 8389,
      "circ": 8390,
      "è²»": 8391,
      "Ġmend": 8392,
      "è´¨éĩı": 8393,
      "esta": 8394,
      "ĠWindows": 8395,
      "ĠìĨ": 8396,
      "Ġsistema": 8397,
      "ĠIndonesia": 8398,
      "æĭį": 8399,
      "001": 8400,
      "abilities": 8401,
      "Ø³Ø¨": 8402,
      "Ġcum": 8403,
      "case": 8404,
      "Ġotherwise": 8405,
      "âĢĻa": 8406,
      "Ġprojet": 8407,
      "ç²ī": 8408,
      "ĠMer": 8409,
      "Ġproyect": 8410,
      "Ġdatabase": 8411,
      "ãĥķãĤ©": 8412,
      "ĠTV": 8413,
      "Ġpou": 8414,
      "Ġcm": 8415,
      "Token": 8416,
      "ĠSoci": 8417,
      "Ġcuenta": 8418,
      "Ġcommercial": 8419,
      "Ġthous": 8420,
      "Count": 8421,
      "entially": 8422,
      "ä¸ĢçĽ´": 8423,
      "çº³": 8424,
      "ĠÐ¾Ð±": 8425,
      "ç¼º": 8426,
      "uls": 8427,
      "Ġcollege": 8428,
      "imb": 8429,
      "Ð°ÑĢ": 8430,
      "Ġship": 8431,
      "Ġhttp": 8432,
      "lich": 8433,
      "Ø§Ø·": 8434,
      "ĠMedicinal": 8435,
      "how": 8436,
      "ĠRead": 8437,
      "ï¼Įå½ĵ": 8438,
      "ĠØ§ÙĦÙĪ": 8439,
      "Ġelev": 8440,
      "çĳ": 8441,
      "ï¼ħ": 8442,
      "had": 8443,
      "äº®": 8444,
      "Ġinterpret": 8445,
      "ç¬¦": 8446,
      "Ġsurg": 8447,
      "Ġjournal": 8448,
      "ãĤĮãģŁ": 8449,
      "undred": 8450,
      "Ġchurch": 8451,
      "å¥ĸ": 8452,
      "udio": 8453,
      "ãģ§ãģ®": 8454,
      "æĵįä½ľ": 8455,
      "Ġcentury": 8456,
      "101": 8457,
      "Ġletter": 8458,
      "orrow": 8459,
      "Ġexpand": 8460,
      "Ġempresa": 8461,
      "Ġ'''": 8462,
      "inder": 8463,
      "GB": 8464,
      "empor": 8465,
      "ç§Ģ": 8466,
      "olic": 8467,
      "ĠìľĦ": 8468,
      "ega": 8469,
      "ãģ¨æĢĿãģĦãģ¾ãģĻ": 8470,
      "igration": 8471,
      "bi": 8472,
      "/c": 8473,
      "atos": 8474,
      "atever": 8475,
      "uct": 8476,
      "Ġbirth": 8477,
      "æĴŃ": 8478,
      ".x": 8479,
      "ëĵľ": 8480,
      "ĠRD": 8481,
      "Ġdoctor": 8482,
      "idget": 8483,
      "umi": 8484,
      "(new": 8485,
      "\\\\": 8486,
      "ĠÙĪØª": 8487,
      "Ġpesso": 8488,
      "ĠLog": 8489,
      "Ġvend": 8490,
      "Ġopportunities": 8491,
      "Pos": 8492,
      "íķł": 8493,
      "Ġfon": 8494,
      "rez": 8495,
      "åľ°åĮº": 8496,
      "Ġgrat": 8497,
      "ãģ£ãģ¦ãģĦãģ¾ãģĻ": 8498,
      "Ġvill": 8499,
      "Ġelim": 8500,
      "ï¼Įå¤§": 8501,
      "atro": 8502,
      "ĠÂ¿": 8503,
      "abs": 8504,
      "Ġvirtual": 8505,
      "ĠPress": 8506,
      "ãģĹãģ¦ãģĦ": 8507,
      "çī¹åĪ«": 8508,
      "ĈĈ": 8509,
      "Ġpresence": 8510,
      "Ġshape": 8511,
      "Ġtoward": 8512,
      "ãĤĴè¡Į": 8513,
      "Ġtrabajo": 8514,
      "apped": 8515,
      "åį±": 8516,
      "ìĨĮ": 8517,
      "och": 8518,
      "ãĤĮãģ¦": 8519,
      "Ġnucle": 8520,
      "Ġorang": 8521,
      "èº«ä½ĵ": 8522,
      "ì¶": 8523,
      "Ġwarn": 8524,
      "äº§ä¸ļ": 8525,
      "çĶ¨æĪ·": 8526,
      "Ġconflic": 8527,
      "sole": 8528,
      "Ġproduced": 8529,
      "Ġfort": 8530,
      "ĠInstitute": 8531,
      "atas": 8532,
      "äº«": 8533,
      "ĠLondon": 8534,
      "Ġapproxim": 8535,
      "ĠRE": 8536,
      "ying": 8537,
      "reme": 8538,
      "79": 8539,
      "Ġprimer": 8540,
      "ĠNacional": 8541,
      ".app": 8542,
      "è¿İ": 8543,
      "ä¸Ģæ¬¡": 8544,
      "oire": 8545,
      "ĠChar": 8546,
      "Ġshowed": 8547,
      "udi": 8548,
      "ĉĉĉĉĉ": 8549,
      "ĠPhil": 8550,
      "---": 8551,
      "åįĪ": 8552,
      "Ġdiss": 8553,
      "net": 8554,
      ".to": 8555,
      "Ġlocated": 8556,
      "è²·": 8557,
      "Ġindependent": 8558,
      "iling": 8559,
      "cu": 8560,
      "Ġnation": 8561,
      "Ġexcell": 8562,
      "Ġjo": 8563,
      "Para": 8564,
      "89": 8565,
      "github": 8566,
      "/l": 8567,
      "æ±½": 8568,
      "_pro": 8569,
      "ìĹ¬": 8570,
      "èĦļ": 8571,
      "Ġefforts": 8572,
      "ĠÐľ": 8573,
      "Ġvariable": 8574,
      "Ġbusinesses": 8575,
      "_v": 8576,
      "Ġinvention": 8577,
      "Ġround": 8578,
      "Ġpode": 8579,
      "é§": 8580,
      "Ġdetermined": 8581,
      "çĶļèĩ³": 8582,
      "cipl": 8583,
      "Ø§Ø¶": 8584,
      "Ġconfirm": 8585,
      "SC": 8586,
      "cient": 8587,
      "Ġmur": 8588,
      "ç¤¼": 8589,
      "Controller": 8590,
      "Ġcampaign": 8591,
      "Ġfeet": 8592,
      "ê±": 8593,
      "å±Ĭ": 8594,
      "Ġtrain": 8595,
      "client": 8596,
      "img": 8597,
      "stances": 8598,
      "Ġworkers": 8599,
      "Ġdistribut": 8600,
      "Ġincorpor": 8601,
      "Ġpiece": 8602,
      "éĶ®": 8603,
      "ĠManagement": 8604,
      "-term": 8605,
      "Ġ+=": 8606,
      "ocket": 8607,
      "ãĤģãĤĭ": 8608,
      "Ġclasses": 8609,
      "Ġimmediately": 8610,
      "ĠDecember": 8611,
      "ters": 8612,
      "Ġfabric": 8613,
      "PP": 8614,
      "åıªæĺ¯": 8615,
      "ãģĹãģı": 8616,
      "iler": 8617,
      "ë©°": 8618,
      "ĠCD": 8619,
      "Ġtres": 8620,
      "Ġmir": 8621,
      "åįĸ": 8622,
      "ÑģÐºÐ¸": 8623,
      "ĠMa": 8624,
      "acters": 8625,
      "open": 8626,
      "agem": 8627,
      "ĠìŀĲ": 8628,
      "inger": 8629,
      "Â¿": 8630,
      "Ġfollows": 8631,
      "ï¼ģâĢĿ": 8632,
      "Ġsudah": 8633,
      "Ġpros": 8634,
      "ĠÐ»": 8635,
      "Ġserve": 8636,
      "ruary": 8637,
      "è§Ħå®ļ": 8638,
      "Ġclar": 8639,
      "Page": 8640,
      "ãģĦãģŁãģł": 8641,
      "Ġmilitary": 8642,
      "Ġì£¼": 8643,
      "ãģĸ": 8644,
      "Ġcounter": 8645,
      "ãĤĦãģĻ": 8646,
      "Call": 8647,
      "ĠPC": 8648,
      "ĠDie": 8649,
      "Ġpays": 8650,
      "éģ¿": 8651,
      "âĹ": 8652,
      "ĠIsrael": 8653,
      "ãĢįãĤĴ": 8654,
      "Ġvel": 8655,
      "à¤¿": 8656,
      "Ġcomfort": 8657,
      "ä¸Ŀ": 8658,
      "Ġ{\\": 8659,
      "Ġisn": 8660,
      "Ref": 8661,
      "æĿ¥è¯´": 8662,
      "Ġrelative": 8663,
      "Ġexec": 8664,
      "Now": 8665,
      "Ġcultural": 8666,
      ".html": 8667,
      "Ġpag": 8668,
      "ĠInformation": 8669,
      "Te": 8670,
      "Ã©rie": 8671,
      "ãĤ¿ãĤ¤": 8672,
      "Ġmont": 8673,
      "Ġdiet": 8674,
      "æĶ¿çŃĸ": 8675,
      "Ġdoll": 8676,
      "ãģĵãģ¨ãĤĴ": 8677,
      "Ġearlier": 8678,
      "IB": 8679,
      "Ġillustr": 8680,
      "Ġimpos": 8681,
      "lock": 8682,
      "èĪª": 8683,
      "elp": 8684,
      "hi": 8685,
      "Ġsous": 8686,
      "]{": 8687,
      "ÑģÐ¸": 8688,
      "Ġliqu": 8689,
      "Ġbottom": 8690,
      "Ġsexual": 8691,
      "^{-": 8692,
      "æ¬§": 8693,
      "çļĦå¤§": 8694,
      "èĢģå¸Ī": 8695,
      "'m": 8696,
      "Ġadvice": 8697,
      "QL": 8698,
      "ĠEt": 8699,
      "æ°¸": 8700,
      "Ġparties": 8701,
      "Ġframe": 8702,
      "unity": 8703,
      "useum": 8704,
      "Ġnone": 8705,
      "Ste": 8706,
      "ãĤµãĤ¤ãĥĪ": 8707,
      "())Ċ": 8708,
      "ÄĻ": 8709,
      "acion": 8710,
      "åĬª": 8711,
      "Ġpueden": 8712,
      "Äĥ": 8713,
      "åłĤ": 8714,
      "Ġanos": 8715,
      "ila": 8716,
      "è´£ä»»": 8717,
      "ĠtravÃ©s": 8718,
      "Ġhappy": 8719,
      "çĨŁ": 8720,
      "isÃ©": 8721,
      "Ġrich": 8722,
      "Ġì°": 8723,
      "Ġpassed": 8724,
      "Ġshop": 8725,
      ".re": 8726,
      "Det": 8727,
      "Color": 8728,
      "Ġplayers": 8729,
      "Ġobserved": 8730,
      "ĠTur": 8731,
      "ï¼ŁâĢĿĊ": 8732,
      "_re": 8733,
      "Ġwood": 8734,
      "iu": 8735,
      "Ġquer": 8736,
      "ĵãĤ¹": 8737,
      "Ġvalor": 8738,
      "Ġacadem": 8739,
      "ä¸Ĭæµ·": 8740,
      "_size": 8741,
      "ç¸": 8742,
      "More": 8743,
      "Ġattach": 8744,
      "ÙĪÙĬ": 8745,
      "ĠvocÃª": 8746,
      "ä¸ĢæŃ¥": 8747,
      "event": 8748,
      "åĬ³": 8749,
      "ãĢĳĊ": 8750,
      "js": 8751,
      "Ġtalking": 8752,
      "å¨ģ": 8753,
      "oding": 8754,
      "Ġnearly": 8755,
      "ï¼Įä»ĸä»¬": 8756,
      "Ġlain": 8757,
      "framework": 8758,
      "ĠÐµ": 8759,
      "\"]": 8760,
      "OK": 8761,
      "ä½ľåĵģ": 8762,
      "ãĤµãĥ¼ãĥĵãĤ¹": 8763,
      "Ġhyp": 8764,
      "Ġainsi": 8765,
      "çīĽ": 8766,
      "Ġbecomes": 8767,
      "Ġreports": 8768,
      "éĢı": 8769,
      "Ġclinical": 8770,
      "Ġestos": 8771,
      "ttps": 8772,
      "ouver": 8773,
      "Ġconnected": 8774,
      "Ġcapacity": 8775,
      "erse": 8776,
      "TE": 8777,
      "èĮ¶": 8778,
      "éŃĶ": 8779,
      "Ġtruth": 8780,
      "-time": 8781,
      "Ġok": 8782,
      "iday": 8783,
      "asis": 8784,
      "post": 8785,
      "å½¢æĪĲ": 8786,
      "ĠØ£ÙĪ": 8787,
      "_L": 8788,
      "Ġtener": 8789,
      "éĴŁ": 8790,
      "Ġeye": 8791,
      "åĲĪãĤıãģĽ": 8792,
      "Ġist": 8793,
      "lections": 8794,
      "ĠoÃ¹": 8795,
      "ĠSince": 8796,
      "Ġcaused": 8797,
      "åħĪçĶŁ": 8798,
      ".E": 8799,
      "Image": 8800,
      "Ġdijo": 8801,
      "eps": 8802,
      "à¯": 8803,
      "TC": 8804,
      "Ġterrit": 8805,
      "Ġpad": 8806,
      "ĠnÃºmer": 8807,
      "ĠprÃ³xim": 8808,
      "ĠjÃ¡": 8809,
      "Ġbalance": 8810,
      "Ġnp": 8811,
      "Ġcoordin": 8812,
      "Ġwel": 8813,
      "ÑĩÐ°": 8814,
      "Ġfamilies": 8815,
      "Ġrock": 8816,
      "Number": 8817,
      "Ġgoals": 8818,
      "ĠEv": 8819,
      "urer": 8820,
      "ĠFound": 8821,
      "care": 8822,
      "æľ«": 8823,
      "Ġbudget": 8824,
      "æĿĲæĸĻ": 8825,
      "ĠAtt": 8826,
      "Ð½Ðµ": 8827,
      "ä¸Ģç§į": 8828,
      "éĽª": 8829,
      "æķĳ": 8830,
      "Ġgan": 8831,
      "_to": 8832,
      "åºĶçĶ¨": 8833,
      "ĠÐ¾ÑĤ": 8834,
      "ifs": 8835,
      "Ġsession": 8836,
      "ë£": 8837,
      "duction": 8838,
      "ĠLeg": 8839,
      "]]''": 8840,
      "ĠAv": 8841,
      "rie": 8842,
      "Method": 8843,
      "Ġstories": 8844,
      "Ġmanifest": 8845,
      "ĠCOVID": 8846,
      "Ġjus": 8847,
      "Ġfinally": 8848,
      "Ġstuff": 8849,
      "å®ŀéĻħ": 8850,
      "atrix": 8851,
      "Query": 8852,
      "Ġproces": 8853,
      "ìĬµëĭĪëĭ¤": 8854,
      "Ġpow": 8855,
      "Ã¢n": 8856,
      "å¢ŀåĬł": 8857,
      "Ġrend": 8858,
      "Ġagree": 8859,
      "amer": 8860,
      "raint": 8861,
      "ãĥ»ãĥ»": 8862,
      "_code": 8863,
      "Ġplaying": 8864,
      "anges": 8865,
      "Ġzu": 8866,
      "ĠÐ¿ÑĢÐ¸": 8867,
      "Ġhour": 8868,
      "Ġestar": 8869,
      "åºĬ": 8870,
      "Ġeconomy": 8871,
      "Ġaliment": 8872,
      "ensor": 8873,
      "inese": 8874,
      "di": 8875,
      "ĠOther": 8876,
      "Ġchallenges": 8877,
      "build": 8878,
      "61": 8879,
      "Ġminimum": 8880,
      "62": 8881,
      "Ġhttps": 8882,
      "æĦŁãģĺ": 8883,
      "alan": 8884,
      "ĠWashington": 8885,
      "Ġgrant": 8886,
      "ĠAnal": 8887,
      "ĠType": 8888,
      "ecn": 8889,
      "æĥĬ": 8890,
      "ĠìŀĪëĭ¤": 8891,
      "ingu": 8892,
      "Ġregarding": 8893,
      "ativo": 8894,
      "Ġinterested": 8895,
      "Web": 8896,
      "Ġinfluence": 8897,
      "ivery": 8898,
      "ĠOpen": 8899,
      "PO": 8900,
      "Ġavant": 8901,
      "Ġdecided": 8902,
      "ï¼į": 8903,
      "Ð¾Ð·": 8904,
      "gent": 8905,
      "ãĤĴè¦ĭ": 8906,
      "/*": 8907,
      "Ġrecords": 8908,
      "Ġsurr": 8909,
      "Ġdetect": 8910,
      "Ġtiss": 8911,
      "Ġreven": 8912,
      "ĠBritish": 8913,
      "ãĢĤä»ĸ": 8914,
      "Ġexercise": 8915,
      "189": 8916,
      "Ġarchitect": 8917,
      "éģķ": 8918,
      "Il": 8919,
      "Ġkarena": 8920,
      "æľīäºĽ": 8921,
      "ä»Ĭå¤©": 8922,
      "ĠDet": 8923,
      "âĢĿãĢĤ": 8924,
      "Ð´Ðµ": 8925,
      "å¼Ł": 8926,
      "ulo": 8927,
      "63": 8928,
      "Ġmechanism": 8929,
      "âĢ¦Ċ": 8930,
      "ê³Ħ": 8931,
      "(this": 8932,
      "ĠProv": 8933,
      "Ġlors": 8934,
      "ĠSeg": 8935,
      "Ġcant": 8936,
      "Ġmemil": 8937,
      "Null": 8938,
      "ĠDay": 8939,
      "Ġconven": 8940,
      "ĠØ§ÙĨ": 8941,
      "Ġmist": 8942,
      "ĠTime": 8943,
      "æ¸¸æĪı": 8944,
      "iger": 8945,
      "ãģ®æĸ¹": 8946,
      "ãģ®ãģĬ": 8947,
      "uate": 8948,
      "Conn": 8949,
      "ãģ®ä¸Ń": 8950,
      "Ġmodule": 8951,
      "ĠPlan": 8952,
      "ç·ļ": 8953,
      "Ġdip": 8954,
      "like": 8955,
      "èĤĮ": 8956,
      "ĠGen": 8957,
      "mas": 8958,
      "Ð¾Ð¶": 8959,
      "uta": 8960,
      "Ġencuent": 8961,
      "å¤§ãģį": 8962,
      "ĠTrump": 8963,
      "ĠatÃ©": 8964,
      "é¢Ĩå¯¼": 8965,
      "Ġrestrict": 8966,
      "Ġtransl": 8967,
      "æľīåħ³": 8968,
      "bf": 8969,
      "ĠAD": 8970,
      "ishing": 8971,
      "Ġobjects": 8972,
      "ï¼ĮèĢĮä¸Ķ": 8973,
      "'h": 8974,
      "å¹´çļĦ": 8975,
      "iled": 8976,
      "Ġjur": 8977,
      "ãģ©ãģĨ": 8978,
      "Ġentry": 8979,
      "åİĨåı²": 8980,
      "ç§ĳæĬĢ": 8981,
      "èª¬": 8982,
      "iny": 8983,
      "eso": 8984,
      "ayout": 8985,
      "æīĭæľº": 8986,
      "Dr": 8987,
      "preci": 8988,
      "Med": 8989,
      "ãĤ¯ãĥª": 8990,
      "Ġsebagai": 8991,
      "Ġobvious": 8992,
      "Ġfuncion": 8993,
      "ni": 8994,
      "cap": 8995,
      "ãģĲ": 8996,
      "å¤ļãģı": 8997,
      "oration": 8998,
      "Ġcro": 8999,
      "âĶĢâĶĢ": 9000,
      "Ġexamples": 9001,
      "isher": 9002,
      "lah": 9003,
      "static": 9004,
      "Ġachieve": 9005,
      "æłª": 9006,
      "åºĵ": 9007,
      "ĠLord": 9008,
      "ĠNote": 9009,
      "ĠBoard": 9010,
      "SD": 9011,
      "-H": 9012,
      "ç»§ç»Ń": 9013,
      "Ġbillion": 9014,
      "Ġresponsible": 9015,
      "Ðļ": 9016,
      "ĠFederal": 9017,
      "Ġfresh": 9018,
      "çĲĨè§£": 9019,
      "partial": 9020,
      "oci": 9021,
      "å®ģ": 9022,
      "Ġcri": 9023,
      "å«": 9024,
      "Ġextends": 9025,
      "èĹı": 9026,
      "Ġaren": 9027,
      "æ°´å¹³": 9028,
      "å¥³æĢ§": 9029,
      "empre": 9030,
      "pons": 9031,
      "Ġtrabal": 9032,
      "ç¨ĭåº¦": 9033,
      "Ġcomun": 9034,
      "eto": 9035,
      "Ġhundred": 9036,
      "ded": 9037,
      "æĸĩä»¶": 9038,
      "ĠOver": 9039,
      "Fig": 9040,
      "ç»ĵæŀĦ": 9041,
      "ifications": 9042,
      "eah": 9043,
      "$-": 9044,
      "Ġstrugg": 9045,
      "leq": 9046,
      "èªŃ": 9047,
      "Ġmainten": 9048,
      "ulate": 9049,
      "igger": 9050,
      "Ġëĭ¤": 9051,
      "è¿Ľåħ¥": 9052,
      "æ³ķå¾ĭ": 9053,
      "Ġpon": 9054,
      "uation": 9055,
      "rome": 9056,
      "ãĢĤèĢĮ": 9057,
      "ĠMag": 9058,
      "ibrary": 9059,
      "rio": 9060,
      "'Ã©": 9061,
      "raz": 9062,
      "uts": 9063,
      "Ġslight": 9064,
      "Ġgain": 9065,
      "è¡Įä¸º": 9066,
      "Ġ]": 9067,
      "///": 9068,
      "âĪ": 9069,
      "hal": 9070,
      "-size": 9071,
      "Ġsymptoms": 9072,
      "enter": 9073,
      "å¥¥": 9074,
      "filename": 9075,
      "ãĤ´": 9076,
      "Ġdivid": 9077,
      "Ġemp": 9078,
      "ë¹Ħ": 9079,
      "oon": 9080,
      "æı´": 9081,
      "ifying": 9082,
      "ãĤ®": 9083,
      "ãģĦãģĦ": 9084,
      "Ġencore": 9085,
      "Ġdedic": 9086,
      "Ġstraight": 9087,
      ">/": 9088,
      "Ġinclus": 9089,
      "âĢĻil": 9090,
      "ï¼ĽĊ": 9091,
      "Ġmoved": 9092,
      "Ġplants": 9093,
      "Ġsymbol": 9094,
      "ancing": 9095,
      "eda": 9096,
      "ãĢģãģĬ": 9097,
      "Ġgarant": 9098,
      "ĠMil": 9099,
      "ĠCH": 9100,
      "ç¬Ķ": 9101,
      "isco": 9102,
      "Ġtahun": 9103,
      "wood": 9104,
      "stall": 9105,
      "TR": 9106,
      "etch": 9107,
      "ĠDate": 9108,
      "PD": 9109,
      "ãģ¶": 9110,
      "è¯¯": 9111,
      "ĠChristian": 9112,
      "isk": 9113,
      "Ã³m": 9114,
      "ĠOpt": 9115,
      "Point": 9116,
      "ÙĭØ§": 9117,
      "ãĢįĊ": 9118,
      "åĮ»éĻ¢": 9119,
      "$$Ċ": 9120,
      "Ã±a": 9121,
      "unda": 9122,
      "Ð³Ð¾": 9123,
      "tag": 9124,
      "Ġhappened": 9125,
      "æįŁ": 9126,
      "unque": 9127,
      "ĠFranc": 9128,
      "ãģŁãģ¡": 9129,
      "æ¤į": 9130,
      "æ··": 9131,
      "Ġconsequ": 9132,
      "ãģ¡ãĤī": 9133,
      "Our": 9134,
      "Ġintent": 9135,
      "çĽ®æłĩ": 9136,
      "cious": 9137,
      "perti": 9138,
      "åıªæľī": 9139,
      "-color": 9140,
      "imer": 9141,
      "${": 9142,
      "ĠArch": 9143,
      "Ġdry": 9144,
      "\\right": 9145,
      "ben": 9146,
      "ĠEvery": 9147,
      "ĠMicrosoft": 9148,
      "Ġideal": 9149,
      "è§¦": 9150,
      "ï¼Įåı¯ä»¥": 9151,
      "Post": 9152,
      "åĲĦç§į": 9153,
      "Ġdomain": 9154,
      "Ġpadding": 9155,
      "Ġdeveloping": 9156,
      "æĸĹ": 9157,
      "Ġexhib": 9158,
      "Ġhuge": 9159,
      "anÃ§ais": 9160,
      "/w": 9161,
      "Ġconcentr": 9162,
      "ä¸½": 9163,
      "å½¹": 9164,
      "ĠSil": 9165,
      "Ġpurs": 9166,
      "Ġpractices": 9167,
      "ãģ¸ãģ®": 9168,
      "Ġconj": 9169,
      "Ġcommunities": 9170,
      "102": 9171,
      "assword": 9172,
      "æĸ°çļĦ": 9173,
      "ius": 9174,
      "Ġante": 9175,
      "æĽ´å¤ļ": 9176,
      "ä½łä»¬": 9177,
      "Ġmorning": 9178,
      "Why": 9179,
      "Ġdepuis": 9180,
      "Ġsustain": 9181,
      "-ch": 9182,
      "icks": 9183,
      "wide": 9184,
      "ÑģÑĮ": 9185,
      "åıİ": 9186,
      "aram": 9187,
      "Ġcrim": 9188,
      "arta": 9189,
      "Ġearth": 9190,
      "Ġuso": 9191,
      "Ġmanera": 9192,
      "ãĥ¼ãĤ¿": 9193,
      "sigma": 9194,
      "Ġscen": 9195,
      "Ġscore": 9196,
      "Ġrepro": 9197,
      "size": 9198,
      "å·¨": 9199,
      "Ġburn": 9200,
      "inya": 9201,
      "gh": 9202,
      "çĿ£": 9203,
      "è´µ": 9204,
      "ä¹ĭåīį": 9205,
      "Ġeasier": 9206,
      "Ġappar": 9207,
      ")}": 9208,
      "ä»į": 9209,
      "Ġwants": 9210,
      "ĠdÃŃas": 9211,
      "ĠAND": 9212,
      "Ġanimal": 9213,
      "|S": 9214,
      "aha": 9215,
      "åįĺ": 9216,
      "Ġmac": 9217,
      "Ãªs": 9218,
      "ildren": 9219,
      "Ġta": 9220,
      "Ġrestaur": 9221,
      "ãģªãģ©ãģ®": 9222,
      "Ġformation": 9223,
      "Ġauf": 9224,
      "è®°èĢħ": 9225,
      "Ġorganizations": 9226,
      "ãģ£ãģ¨": 9227,
      "db": 9228,
      "Ġvehicle": 9229,
      "æ¶Īè´¹": 9230,
      "Start": 9231,
      "Ġ::": 9232,
      "æīĺ": 9233,
      "Ġsignificantly": 9234,
      "Ġforeign": 9235,
      "my": 9236,
      "çĽ®çļĦ": 9237,
      "that": 9238,
      "utos": 9239,
      "Ġproposed": 9240,
      "Ġreturns": 9241,
      "Ġcharacters": 9242,
      "ĠSecret": 9243,
      "Ã©cn": 9244,
      "Ġê²½": 9245,
      ".id": 9246,
      "Fl": 9247,
      "æķĻåŃ¦": 9248,
      "Ġidentified": 9249,
      "Ġmotion": 9250,
      "ÐµÑĢÐµ": 9251,
      "ĠĠĠĠĠĠĠĠĠĠĠĠĠĠĠĠĠĠĠĠĠĠĠĠĠĠĠĠĠĠĠ": 9252,
      ".spring": 9253,
      "Ġrac": 9254,
      "./": 9255,
      "ĠAny": 9256,
      "Ġessay": 9257,
      "OW": 9258,
      "ĠMany": 9259,
      "ĠJournal": 9260,
      "ĠPara": 9261,
      "frast": 9262,
      "ê°Ħ": 9263,
      "å¸Ŀ": 9264,
      "Ġcircum": 9265,
      "Ġmole": 9266,
      "ĠseÃ±": 9267,
      "ĠrÃ©al": 9268,
      "uesto": 9269,
      "å®ħ": 9270,
      "Ġwarm": 9271,
      "Ġese": 9272,
      "Ġdib": 9273,
      "Ġsequence": 9274,
      "ãģ¦ãĤĤ": 9275,
      "Ġmission": 9276,
      "([": 9277,
      "åĤĻ": 9278,
[...]
